node {
  name: "x"
  op: "Placeholder"
  attr {
    key: "dtype"
    value {
      type: DT_FLOAT
    }
  }
  attr {
    key: "shape"
    value {
      shape {
        dim {
          size: -1
        }
        dim {
          size: 50
        }
        dim {
          size: 50
        }
      }
    }
  }
}
node {
  name: "sequential/flatten/Const"
  op: "Const"
  attr {
    key: "dtype"
    value {
      type: DT_INT32
    }
  }
  attr {
    key: "value"
    value {
      tensor {
        dtype: DT_INT32
        tensor_shape {
          dim {
            size: 2
          }
        }
        tensor_content: "\377\377\377\377\304\t\000\000"
      }
    }
  }
}
node {
  name: "sequential/flatten/Reshape"
  op: "Reshape"
  input: "x"
  input: "sequential/flatten/Const"
  attr {
    key: "T"
    value {
      type: DT_FLOAT
    }
  }
  attr {
    key: "Tshape"
    value {
      type: DT_INT32
    }
  }
}
node {
  name: "sequential/dense/MatMul/ReadVariableOp/resource"
  op: "Const"
  attr {
    key: "dtype"
    value {
      type: DT_FLOAT
    }
  }
  attr {
    key: "value"
    value {
      tensor {
        dtype: DT_FLOAT
        tensor_shape {
          dim {
            size: 2500
          }
          dim {
            size: 128
          }
        }
        tensor_content: "#\220\314<>;@\275V\021\226\274\331d9<\270\267)=4? <\242\244\275<\021\210\004\275\303\023\024=\251\306Y\274@I(=R\311\305<\210\021\313\274r\254\247\274L\003\344;\326\210\001\275\267\010\t\275\320\346L\273\354\253\276<\016\033\233<\270\363+<\332L\215<\203\366\033=Ys\310;\341\336\033\274\266\202\355\273\317\213&\271\257F\201:P\2514=\036\273\370<\277b\262;s\3052=Q\217\037\275\237d\316<\222\022\354;\364J\367<\322\265\217\270]\210-\275\021\037\244<\352\260\322\274/\314\032\275\364\375s\272\332\250\275\274sO\032=T\261\037\275\274q\210\273=\003!=a\303 =@\277\277\273:\354\225\273FH\020<_\377.<\n4\025=\343D\023\275=\213\201\274\230dT<\356\2475\275\336\033@<\373;\246<\032\332\013\275:\n\246<T\000\334\274\230\013\036\275\005\202\033\272\373\213X\275\235Uk=\016\033\257\274\210)Q<\t\207\016<\300\204\312\274\233\223\254<\376v\253\273)\215\250\274WJ\310<\316\273\021=\271]2\275\342q&=\006\221\373<\032\005\352\2747\027\004\275\230j\035=6\333\375\274\000t\3748T\301\301<A\200\342<\032;?\275\236Q\003=*\306\250<\037\023V\274\322\327\341\274\326 \014<\337\r\321<\033J\204\274m\2636\275~/\234<\037qs\274\013V\357\274\243\366\307\274\236s\205<\034\253P\275o\330\014\275\002G&\275\016\226\341<\330V\022\275\344b\017\275\327\254\031=J\0054\275\t\270_<#\300\035<-O\265<M\347\003\274)\317Z<d\275\024<V\251\347\274\3265\326\274\231. \275~!\240\274BL\021=\346\244X\275\274\366\364\274\205\347\204<\274\203\035=\214\341\347\274I\340\236<\r [\275/d\342:\263j*\2750\240q\274\264\276~<\306j\340\274;\243\300\273:EG\274\334*6\275\336\005)=b\311I\275vK+=\377\2024\275\365)\r\275\2008\016\275\203\310\215<\231\200\250;\367A\023\274\014~y<\t&\241\274\206\322\215\274<9V\2750I\316<\315Hs<\363#g\274&H\034=\366\260e=*.\343\274\214\345h\274\363\236\236<\243\361\226<@j\027\275\264c&\274\214r\022=\3359\355<d\303\324\274;\205\005=\330\354\\\274\025\250\t=\271\322)=\223\223\275<\324\307P\274\001\375\023\275;C\236\274\010<R\274\311L\202\274We(\275\276\303+=\355\236\005\275\3224G\272v\366\270\2741\335:\275c\0035\275~\314\215\274\356\215\200<\360\317o\273lCU=)K4\2754}\013\275\247Y3;\377\004\240\273\r\330\004\275q\241)\274\206\254D\275\264\301\222<+\346\362;\342\312\263\274h\014\037\275\004\333\216\274\313\212\345<~\255\222;\372]\236\274\304\220\034=\013\243\017<%\216&\275bC<\275\232\305\345\271hF\261<\230\235\035=b&7=\203\026J<\244\001\033:\251\207*\273<\371\003\273`\253\037\274\277\252\257<T\340\032=\363\244\025;t\334w\274\257\311\\<\031$\250\274X\006\006\275V&<\275`\204\006<BfH\275i\230\003=\367\247O\274\376D\311<\257\3521=\322E?<\254n\024\275ss\271<-\347Q\274\024q-\275/\374\377<\301\001\007\275\371\316\013\275 Z\020=+k!\275\220\013\026\275\266\364\315\274\242\323m<7\214&\274\353\260\330<)\007\321\274\2223a<e\303\005\273o8P=\022n\227\274\320L.\273\302\0349\2750\274\310<\213\307\374;n\360\r=\354\001\245\273\013\236\020\275W\331\327<A\262_\270\374\242\230<+@\221<h\233H<(\223\357\274\177Q\265<\322C?\275iM\031<\032\370\354<\372\331W<\031\275%\275\273\016~<\353@!\275\367\312\337;\'\007\022\272*\351?=g\237\027=\364\336\327<@\221\016\274\210r\031=@\026T<O{?\275\352\272z<\214F\017<\216\254\030=y\276P\274\235\317\262<2\344\377<_J\222<\343\257;\275*\240\317\274\344\332\216<s\264\007<t\311.\274\275&;=.c5\275 ^\330\273\251\206\337<^\272\315\274\017\345!=b\204\324\274\346\243\347\274\356\032\232\272q|\241:@I\307<\013\323\354<c\031\023\275h\227\000=c\371\'=d\001\231\274n\255\216<\025\r\322\274\205sQ<@\356\273;\341\266s<J\"K;/\030\r=\333\2622=\006\327?<\017r\r=Qf\037=Q\242~\274\306\371\001=XP4=\'\312A\275\034\247\337\274[\356#\275\310\234*<\205\033\020=\032A\004=\022\033\272<UW\342\273D\375F<%\315D<\026\017\016\274\220\273h<]_O<\325\311\006;Z\227\250\272\331\025\223\273\306;\354\274F\020<\275\352\247t\274K6Q\275\022\320N\274\265L\371<\206\020\373\274?\230\222\274\315\"\013\275\215\210\312\274\005\005^<\305\307$<\354V\t=\367*\016\275x\245\312<\023\344 \274D\305\030\275(\016\207\274-\350\376\274\032\013,=b\273\251<0e\001=\311\371W\273\335\317\357<\313\250\224;\005(W;\006z\303\274S\2405\275\027]V\275\311\225\032\275Hv`<Q;\312\274\005\2746=\305`3\2758\327\021\275\305\326\345\274\023w\346\274_^\372\273\236|\026\275\346\263\332\273\240\'+\274\"z\276\274S\375\267\274\264o\027\2732\3600\275\304\266\256;\362\016\275\274\3454&\275%\304\360<\215\225\014\274\037*\322\274\210\305\006=\314\030$\274\005L\247<\241F\000=q *=\372}X\275\323`\350<P\332\263\273>\263\016\275+\305\322\274\267\030\036<\255\025\013=\001\274\352\274\237\304_\274\017w\310\274\205%\306;FI\307<\375:I\275\304\251;\274Y\331#\275\370\003\233;}\214L\273\303\336j=\241\312\330<\035\314\224;\272g\202<l\016\353<\202\244\351<\030\354\236\2726h\265;Do\370<\211\177\254\274\324\343)<\034\350\301<6@\335\272T\nH<}\270\230\274s\207s<\207\317y\274P\225\216\273\036\344(\2750\343Y\274\256\177\335;\002\263);8\235Y\274[\000D=\340p\225\274\235\336M=\217\306\003=\035\254\013=K\365;\275\333r\243<#\207T\275\254&\"=\260\205\206;\353\310;\274t\261\322\274\230\375\307<\203\334\225\274\014x\177\274\220\303\370\274\270w\036\275\347\325\234\274\231,K\274.\324\320<\r\210Q\275\303\304\355\274j\311\256<!\0071=]B\346<\372\356\377<\r\200\334\274\277\210\335<(\316o\273l\307R<\206\376i<7D\307\274\363\233\316\274\030\305\004\274\322i\002=dlX\275\360\222:\275\275\036\025=\001\322Z\275&\346==>\201\374\272\221\273\266\273_[\010<K\265\365;J,\004<<\002\343<\020\020\013\274,\225\000=Cr\266\274I\000-\274\357\017\t=\210>\n\275\264C\304<\321V\221\274kR\013\275\0325}<I\257\311\274n\2642=\236M\317<>\346#\275\021\377V\272?\276\253\273JH\330\274L\375\377<\376\"\354\273<\267\365\273\335$-\275\325\206\203<\206\263\364\274\222#\251\274\220O\005=(\274\347;\004\344\007\275\316k\'\275\030\255\334<\004\303\"\274/\033\027\275\324E4<\214\2532<\201M3\273|\211\270<\234\020\347;\020\240\202;\336{09\\\204\272<\0108\311<\035R\356\274\222\345\261\274\306$\250\274;\223H\2754Q7\275Z\031(\274\033\030I<\320\234\023\275gM\200\274\200\363\027\275\313\0322=\326\227\354<\275\022\324<\362\267\217\274\223\037\231\274\300\263\267\274\377E\304< \330\325;\322\201\001=\227\276\236<\t;%\275\353S\372\274\274\004G=\235\\?\275>q\311;\362.\016\275^\260\'=x\333d<\002*\324<\244\251\032\275\210\326\327<6\321\222<\340\340I\275\330\307\306<>ZE\275\313v\014=\345\035\033\275u\t\242<\223R\220\274\330\007{\274\300\315\360<\245\017#\274\203M>=\020\254\313\274]\311\307\273\211o\366<\227#`<f\035\373\274\354\220\336<$\327\215;\247\372\376\274p\342u\274\233(@\275\321\006a<\351O\345\274\262^\361<:\304\370<<\363\371<\"\3477\275YN\271\274M\326M\275\246+.\275\301W\237<\023H\307\274\316?\006\275Mn\251<\2302P\274\026\311*=\026\r\021\275\270\354\300\274\362i\372\274\rm\230<\311\367\215\273\302:\202<\316\232\252<R<\372\274$\215Y<\256\031\000=\225g\340<\212\215\256<q\344\244<\210\316H<Qh\265;\217<\006\275\345\3700\275R\230\345\272\327c2\274\310$\331<\364l\225\274H#\004\275m\300l\273S\347\353\272\305\315\2449eY\030\275Zq\372\270\312\363\010=JO\277<\327\205\346\274K\016\265<}\354\352<\022\2538<\201\020S\274\r\361\375<I7\352\274\271\016\274\274\233\017\n\275\270H\323\274\315\302\304<\017\236K\275\0028\377<[0>\273J\360\025=1D\021=\277v\333\274\226\373\255\274jI\022\275W\226\374\274\024\265\261<\205\017\267<~L\004=\021\003}\273t\370$\275\361\007%\274QDK<A\246\252<\377\374\030=\274$%=\366\203\037=\366\333\247<R\010!<\215\324\373\274S\021\337\274\274/\320<}\300\215;\333\370\024\274&\203\333<\267\206#\273N\263\007\275\361\237N=C\017]\274\311\327X\274\305sA\275\370t\357\273\200\301\002=\000sc<,\030*<\312l\203\274?\352\363\274\375!\265\274\026\2361={\302;\273<H\224\273\220\300\032=\246/b\273\204\362\221;`<t<B\016L<9Ih<1J,\273j|J\275\253\347\220\274\233\266\032\275\357;7\274M.\026\275T_#=\372\356\001\275\036\213\016=[\220\030=\244{\034=F\205M\275\227aR\273\030E\317\274\261\356s9A+\014\2753*V\274\022\037&=\241\240\\<^\002\014=\261\327J\275~A\025\275\354\315\214\274\265\373\205<\342\300\016<\252M$=\255K\264\271\367\204\313:Q\244\366<\244^\240<\273\202\265\274X\007\036\275\344\001\366\274\334a\222<!!\307<v\010\037=&W\260<\363\016\253<\332\360\230\274t\304\371<-\277\010\274F\372\337\274\227\021\234<\232\275L\274B\354\006<kn\212\274tIy\275F\014\333;\204y\035\275A\336\037=4s\231;pH\356<q>r<\332S\250;\315\226\217\274\002\357\342\274\203\252\032=\ngl\274\270\303?=\246v[\275\244\265d\274\263j\211<\006k,<\000*\352\274\r2\215\274\350R8=\'\227s\274$\321\202<\2608\n\275]\302\346<\310\265\365<\033R\r=\227s\343\274\211\252\317\274z\323,=*\2138<\037$\010<\002h\250<\247\255\322\274Z\324\354<\014\200\345\273\217\376\007=8\260H\274%\353\002\275\270\340\006=\256\360\t\275\370\203\332<\222\371\030\275HY\026\275\031\022\\=F\"\"=\214\272\364<\302\270\t\275\333\263\204\274g\203\037<\"\370\364\274\303\320\000\275\325\354\007=I\033D\275&\003\003=\333tB\275\207\374#\274\275\004:\275\300\014v\274\n\024\324\273\036\267\274<\357Y\235\274,\257G<\313%]\2732\337\035<\246\317E=\254\360^;y\037&\274h\220-\275\261J?<\326q\025=\361\303\354\2747{]\274x\250\227\274\354\322\034\275\026.\263\274\3735\027\275\2310\021=.\326\330\274\002 \r\275R\335*\275\'\200==\242y\350<\204\206\207<\033/\356\274n\206\323<?m\375<W\246\031=\221\326j;lf\327;\237\301\035\275\030\231\016=f\2701<\336!4<\221\355\261<\334aV=X\307=\275\215Hg<\313\322\226<\001:\347<0W\010\275m\253\333\274\231h\035=\037\240\340<\240\000W<v\365U\275I\260<=\223&k<\221\010\306\274r\342\205<\236\270\245\274y=\265<\377g7<m\225&<\372\341\337;\343\376L\275\312-\337;\033\326\025\275;k\2759\352]\200\274\257\'\250<F\315\205<\202\245\337:5?\016\275\226/\224<\267_\253\274\177\200\216<a\366\223<\342=\232<\026~\032\274Vz =x\372~\273\370\223]\274tt\223\273\360\370\335<\252%>\275\303\t\225\2742\216\333\273zq\325<)\332\214<\216 2\275L)4\275\267\361\257\274\340\231\333\274\332\347\017\275 y\326<\321\255\222<\014\233\243<\374\006\037=\254\221\036=\377%\267\2741\267\3279\251\\\351<\252*\025\275z\226\007=\256\034C\275\341\353\016\275\237a\204<\204\247\177\271\212\304\243\274\217\360\022=\004>\364:1\021.<\217\314\212;\232H\014=J\246\273\274\313\367*\275\240\312\027=\r^i<\315\311\"=7\365\256\274F\241@<C\004\214<\376\226\'\274\315\250\374\273\307\353;\273;&N\275\303g4\275/\273\320\274DL1<\314\346K<\2158\027\273~\260\254;\304u\300\272\241Ak;\002p\034=\206\3259\275Sm\027=\346\245\364<Ls>\275`\022m\273\254\377\013=v\007\253\274!E&= \335\307\274\252\032\177\274\250,\276\274k\355E\274\321|>\275\356\246\003\275\031\361\t=X\271U<\026S\272\273\034\332u;\003\206:\275j\304\363<q9.=G\237\227\274 \301i\274\272\373\373<d\243I:\261\356\326\274I\367\243<\337z\032=n\334.\275x\201=\275q=0<c\221\021=2y\031\2758^A=+\313;\275\3710<=\373\026\343<\007\314\022=4f\255;\377\275\253\274\335\200V\275So\222<o\002\214<jWC;2\276\275<\233W\357;kS\244\274\206\243\225\274\257e\025\275\336\327\311\274*\365\010=+\276\\=\017\026\330\274<\352\021=\026L6\275-\246\007\275\005#R\275\272\331\007\275\375f\367\273u\253\025<\037~\375;1\274\025=\330R\'\274\374]\3259\026~4=\217:\300<^\355\240\274\r\350\035\274\264\212\036=LL%\274/\273a<\226\'\256<\227r\275\274\210@\251\274\2332X\2749Z\021\275b\217\016\275\243~\201<\215\t\005\2744\3736<5\275\301\274=\240\265\274\3735\215;T\242\303\274\303B\213\274M\357F\275n,\n\275\374U;\275H\222\342\273\305\212\006\274\333\345\267\274\345/C\275@\326\014\275AvK\275oU\036=\037p*<9\340\356<\314\377V\275fa\211\273Z{\\=Q\350\021=\320\324\246\274\032x\332\274\354\262.=uB\311\274\321^\017\275B\222\020=\340\313\331<\342(\035\275\350\307\035\275\271\245\237<YT\372<|?\000=,m\226\273\264\322H=\010\r\211;>#\326<\331\207\237\274e\356#\275\010\007\207<.\376E\274\350\370\237<\353\311\204\273\263\344\216;\330vZ\2747\024I<\246\377R\275vg\377\274\002\264`\274^\316\337;,\255\037\275\322k\350;\214 m\274agR=$k\327<\235\'\360\274(s\222\273\023\010\031=\3573A\275\343\266\374\274\224\332\016=v\003\244\273^\256\025\275gO\217\274\311\3722<\260\261\003=j\255)\275WP\373<\373\317\254\274\205 \031=\210i3\274F\013\007\275jg\226\274\313\214U=\204\232\001\275\236wR\273\306\202%\274\235=\263<\331\252\276<\003\312\324<\345\306&\275\364\037\336<>L\306\274\r\212\r\275\337\261D\275\t\213N\274e\235\276<\034xX=q\233e\271\370\005p<x\304\367;Q\335\303\274\352\236\017\275\224\277B\274\200\021\371<\206\373\257<d.\363\274\2222\250\274\270_\000=\341\353\342<4\315\256<\233\315\362;\355\2070\274\003_\202\274\315\233\310;\376\020A<\235\340\227<\255\302\241<\343\233\260<\007U\337\274EX\010\275}G\223\274IZP={N\216\274\307\363T\275\034\374=<L5\233\272\237\263\t=\321\334K\275\n\323.<G\261h\274\307{4\275:X\342<\346.N:.;0\275#*\020\274\301\r\233<\010\365/=Mv$\275\247\357C=\317\201\333<\230=\250;: $=\332f\206\274heS\275\202\264&\275\336\220*=$fB=\206\237\001=\367\375*\275\307k\"\275\322\210$\275D\351\334\2740\333\226\274\263\301\235\274+\236:\275D\335\316\272\261\025\323\274\311\353\n\274V\276\336<\372?,=\341\244\342\274\353\366\002\274\363\303B=d\227N<h\033o<toe<\356S\027=\222\367\264<5\013\216;\311\346R\275;\222\307<\243\363,=u@\234<\326\267F\275k\307M\275\362\315><v\2243\275-\250\257<t\013\324<\331\031G\274\326\232\225\274W\2105=\322\254K\275\324R\344<t&\027</\0020\275\307\206\275<\262Q\240\274D\020\226\274\260\207u\2733%k;<V\301<\'7n\274\376\301%\274\256\205\010\275\013R,;%\217B\275\334\022\002\275\333yH\275\256y\310<\202=\277\274\223\025\260\274\326m\202<\014\023\016\275\221\031\t=bV\361<yi\'\274P\261]<\352C\330\274\243\345\000<425=t\243\335\274\275:n\273b)\254\274\311pQ\275\220O*\2754~\226<R\023|<\246\264,=Gf\000=u\224\244\274\253\017Q<d\315\245\274\203D\304<\'\273\013=\026\325$\274R*\360\274?\262\306\274\356f\355<\352\272 =\232\254@\275\331T\340<;\320\322\274\244\016\207:\304\202\213<\001n\202\274\233\305\231</b\316<\300\216S\274GEN\275\034~[\274\264\0036\274\217\243\251\272\257\376\016\275\0333-=\333\300\223\274\3071\256::@\272\274@\266/;\366\3452<U\221\3079\243X^\275J4#<\271PU\274\310\365\202\272T\265\323\274]F\002=\366$\031\275\031S\225<|\216%\274\2006\024=\235\007&\275\013\253\005\275\024\274X\275\204\235\026<t\264/\275\003\210v<J\377\370<\374#\312<\261\334T\275v[\030=\025\377\301\272\262P \275\221:&=\026\024\t=\271\013\023\275\261);\275\234\206\314:\317\220\350\274\356\330\335<\261\010\230;de\303\271\310V\314<\242\272z\274\007\036\004\272\302\355\033\275\340\312t<\332\031A\275?\037\272<\264\021\374\273\350\234\033\275U\024\331<&\260k=\"\377\031\275$\250\320<#\352\021=\034\207)=+%r<\201\246%\2756\325\373\273.\016A<=\007g\274\0172\276<\332\362\231\274v\324\235<\202\220p\273\301\357\021\2759]&\275\025*+\275\206A\276\274R\032\326\274\237\356\214:\201\376\024\275q\266\341<\351\305\020\275\\\365J\275\315\311\322\274\240\271\316:\245i\023<\343)C=\365\026\010<\270\225\031=\332\233\250\2740RB\275\206Z\036\274\000\326\377<\236\265{<]p\251;:\211\365\273=\323\355\274\014\347)\274\363\240\372\273I5\327\273\275}\354\274{N =D1\332<\344`A=\362\315y;\220\264\231<\204\2058\274\342\"\'\275[\225k\274\210f\023\275\373\223X\274\345\263\001=G~t\274\026\023 =\216\231\010\275\345#\323<xc\300\274\306\336\315\274\263Q\226\273\226\374b\274*\227\230\273&\247?\275\023\033E={\005\334; \014\325\274\311\353\370<\300}\221<\200\004\315\274\364B\307\272\033\032\251\274\tO\263<h\026\271<G\236\322\274\316\346\033\275MJ\270\271\231\344~<\251B\031\275\251\023\303<Z\274\033\275\302\205\246\274\024\\\022\275$\226\024<\000, \275\321\026s<\235\210 <\353\215N\275V\2436\275\337v\262<\326\331\030\275\231\037(=\033K\330;LcK\275\215\362$\275\007\333\036\275*\361\377\271\256\333n\274\234s\003<ap\030=\341>P\275\300\213\227\274\346\373\302\273\234\0204=\r\024\317<eZ1\275\246\002D\275it\n\275\333\357&=B\227\214\274\010\337\006;\363\202*\274N\233\013\275\263R\307\274\246\217\r=\000\'!\275\271\342\016\275*\r]\275#\275B\275\322\314=<\214]\346\274x\376\246\274\303O\266<\305@\307<\250\374J\274[T\025=\312\265\255\273C\270\262\274q\273V<X+\022<\242\\h\274\356&\021=$\207\021\275\363\351\036=\344aM\275\203\257\177<\360Y/<\262\255\331;G\315*\2743\254\2679\213\312\031\275\005n8<L\\L;\010\340\340<\031\2726\275\277VO\274\027\272L=\245K\323\274\177`\200\274\360Z\263<#\007\014=Io\022<8\265\211<\332\237\252\274hA\323<y*\'=s\2254=$\363\304<\230FT\274\320<\023<~r\277\274\313OK\275Vd\"\275\221!\246\274\367\003\220\274\273a(\275\257vC\2747z\271\273\364\334\316\274\212\031\233\273\2048\350<\301\351\007;A\025\374\274\265\311\036=E\177\013\275)\032\221<\2540C\275\301\204\333<\261\037+\275\334\305\253\274d^\320<\220,\357<\373(\207\274\250Q@<?e\002=\325\216?\274\352\270c<~i\273<P\242\372:\304\\\233;\340P\260\273\276y\022\275#\207}<+{/\275\347\0374\274\360a\304\274\346\212\007\274\013\301[\274E\370\004\275p\333>\275\3450\215\274\365\\\032\275NU\320\274\254;\212<\030\033\250\274\002\300D\275\035\207\343<fv\262;H\327\313<\2171\303\274\316\026\224<S\313\205\273b\310\n=\246v\035\275\213x\004=\365\336H<\3715\310\274\001\352?\275\004\377f\272\313\227\227<\342\373+\274\357\024B\2745\353\t=\230\"G\275\324\255\310\273\025V\r< c\'\273\212(\222<\010\2624\275\037%\227;\222\304\016\275/\205\233\274p\275W\274\316g\026=\322\350[\2755\035\236<\036\231\321<\350\006#=;L\000\275\230\231\005<\262\256\032=\304\227>\275\347-\021;GtG\274*\252\220<\262\0321\273\341P\n\275M\353B\275?\320\024\275\361\313\001=\362-&=\252\344\362<{S\212\274Z\265\r\275\032Z\t<\202\\\013<\3055\001\275\210\206b=\317@\354;\327F\017\275\227T\377<\000\354\276;\014\225\266\272\236\270\233\274\006GG=\356\270\020=h\350\030=|5\030\274\014\3054\275\036o~\274\265\314+=\367\017&\275\2146\r\275\367@\262</,A=\0300\007\275\326\267\263<\000\320\204\270\263\340\341<\304\022\215<\361\326A<\221\246\363<V_\'=\000>D<\215l_=\241\226\r<\323k\356;\300Q\264\273ya\004\275+\366,<b\362\n\275\032D\305\273a\332t<d\352>\275,\036\320<\374V\301\274\345~\364\274\223\307\356\272\035\231\025=\232\211\331\274\360\307\346<=\301\265\273\225*!\275\t\017N=m\300\360<\315\305\242\274\002M\005<\346\203N\275\037y\256<\033\031\031\275y\236\261<L\267\025\274RaS\270\226L\310<\276r\n\275\"\226\035={\203\255;\374\0108\275h<\203\274\303\273\340<u\0302<@\322\275;\004\343!\275L\035f<^6\331\274H\341\243\273\261?f\274zp\037\275M\235-\275>K\033\274\016*\213<\323\2310=\006e\224\273S\240\215<\371d\377<lG%\275\314\312\245<\363W\232<IH\234\274\272\304\271\274n\257+\275V\204%=\003\007[<\206\352B\274\257\357\021={\211 \275\036\313\007<\315\271\"\275\252\024\r\275D\352\330<@\002\325\273\023zz\273El\000=H\001\327\274$\317\266\274\200\274\323:\256\266\203\274\233sE\275.\367\'=\271N\274<?m;;\026A\215\274\275\234V\275\021\234\266\274\205\306)\275?%\302\274R\261$\273\271\263\272:\364\246\005=\214\037\313\274\370\026\030\275j\343\301\274\341\035\265<\0306\255;\347K\230\274j\273\243\274\305\352\244\273,\033\254\274\213\023\377\274\327=\315<\366\3760=\245\257\006\274x \346\274\'\'\330\274;*\364\274z\233\033<\313\203\016\275~\0354=\216x\213\274\325Nn<\351\337S\275N\364\235\274\252\326\233\272\365\344\272\274X,4\275\363\323\000=\243\322L\273\341\215\264\274\214R7\272\004P#=\243\240\025\275\364p\024\275{\245@=,\377 =\344\217]\274PC\207\2749\275R<&=\312<\371\201\200<\032b\242\274X\323\277<\350\3417=\014Z\033\275\272 \323\274ni\022=\1778 =r\246-\275\237\'\201<\232\222 \275\014\346\203\273\360:n\274\225\3564\2752\275\000=\254\253\341\274\271\005\247\272\364\201\256;\021 \033;\360,\246<j\2220=\373CW=\013$\005\275\330\030\230\274\027\260\235\274\307\227\007\275]e~<\036\0012;\236\316\007<\'R\030=\222\201X\275\321\307\227\274\303U\022\275\310\222\'=\3376\320\274\267Z\273;\031\251\241\274d5\003=\334\205\320\274\211I\022\272\242e\246<\2475\240<\004X#:\373\037\305<\372\226r\274\304%1\274_>\276\274\225\004[\275O\230\221<N\216\340\273\234\266\370\274\010\247u\274\251TM<\265!\277\273x\022\n=\224\205\017\275\377m\n=\023H\n=\204\377@\275\370BJ;2\346*\275\021\214A<\302\246\244<\316\230\021\274PzE<)$O;V2&<\305\346\205\274_d\324<b\212\231\274mm\360<\013)I\275rV\267\273\264\317\031\2755J\226\274$\201\322\274\320X\014=\352\035\003=\213\000\305\274\216cP<\365\213\336;\"\325\277\274s]\300\274z\275\206\273B\347\366<\302r\032\275\031\312-=B\2542\274\262\243\001=\214n5<H\216\367\273_\3411=?\336\227\273\377\0319\272\216K\031\275\256\342\024=\317\\\010=\255\334\262<\351\365\020\275\351i\257\274\031\310\007=t\007\261\274\005\365=\275\363\024\227\273\007\200\206\274\312\330y<\307\r\274;\242\317+\275\004[?\273\253\016\010\275_o\352\274Mc\246;\317\005\326\274\212\021\017\275\343\357\237<\002<[\275\226\177\223\274,\013\024\2752\377\225\274\330D\205<\337\342\247\273\375\020Q\274\214i1\274\241Af<\364\301\r<j64=J)\271<\301\316\311\274\257\004\240\273\373\323\376:.\016\022=k\"^<`\211\002\275\230F4=\261\022y<)\025\236\274bI\272;\312\212-\275\020\201y<\246\210/=\226T\344<c;7\275~\275\037\275\310\227\346\274\355H\332<:C\267\274\254\347\343\274N\206P\273z\250\035=\202\256O=\"\276\237\274n9\364\273\234\211\000\274\000\207\007=H\237\224\273\301\272 <\"\241\223\274\322-\004=\303\016\030=@\314h\274E\253\257\2744p==\034\351N\273\001j\037=Q\336\026=\357E\n=\211\340\254\274\202y\315\274%\360\320<f\004f<\300\235m\273\263M\030\274P\322^=\\w\013=\224Vq<\241\225\034<\311\nN:\014N <\'\252l;&P\241\274\317?)\275X\005-\2756\024\217:\235\352\201\273\271\347\213\274\261\210|<\010\003*<\233\354\216;\362V\327\272P-\037\275O\222\001=S\327\265<\032U\320;gm6\275\245o\n=\030P\034\275\252\022\261<\275b\276<\374\254\250<\266\277\035=\361\302\025=|G\211\274,\365\030<fHJ\275\225\2341\274\003\271\201;\206\210\306:\272\274N=\036j\"=\274\331\204<~\277\303<&\252\177\274\327\320\211\273\314=\377\274\232Q\251\274\322\265\232<\034\352\277<\010\367;\275R\360\"=\277\225Q\274\"\246Z\274\272\350\007\2729\312\315\273\305\274\030\274\201d\246\274\2423\264\274\303\262[<\276\210<<\214\267A\274\201\223\003=_7)\275\3104 =B\026\232\271~\374\026=\341$\356\274\276\362\035\275\301Y\264\273r\036x\2747}\005=:\010x\274\017\016>\274=]\002\275\277W\235:9\243\214<\265\251Z\275E\\\014=\273^\376;\340:\221:w5\205\274a\024\004\275Jb\231;N@!<\260\327P\274\330\343\222;=\027\261\274.p\210<\204[v\274\257\331\321<\010)\336<\367\0030=\202o\240<\342\321\023\275?%\373\274\207\360,\275\275eY;z\217/\275H$q\274I\277\357\274R\232\010\275\n}\006=\261\351\302\274*kT<\275\032\310<qP\022\275\022\365\250<RG\001=\324\'9\274\033|K=\234g\023=\302\023\"=\237\355\031<K\023r\274\252\222\013\275\225\233#\272\230\250!\275\001\227\221\274k\0014\275}\360\023\275\261#\021=\254\312\301<\316\263\262;h:=\275#\235Z\275\313W\347<\375\230\006<Ir\363\270!\010(<0Q\027<\257\2673\275\363\021\t<\350\231\374<\245\307l<\261`(=\256_@\273\'\020\241;a\3610=>\361\275<|[\006=\351 \224\274\005$\264;\246=:<g\313\304\272oB+=\361\314/=\313\200\345<\200\242$\275M\352;=\005\232\027=\360\202\256\274W\272~<\345\343\304\274\253\235\235\274OZ\237\2743\005:;\031\357\240\274=\311\372\274o\013V\275&\2625\275\222R\024<\332\020\006<\014T\356<\272\366q\2743\201!=wS\350<\365\007\024\275\344\3543<\313\313,=\311|8\275\t\002\313\272\271\025\211<\355jP<\260\250X<\220\201]<x\tJ=8\370)=\023L\022\275\'\372@\275\003\022\205;D\025\375<3\016\n=\033\013<=\357\264s\274\247F\t=\277\347F=\337tW<]\037\334\274\227g&\272\373;\354<+{\034=\n\242\270<:\317\370\273\254\323/\275\234\323\3249`\264\202;\367\270\r\275\373T\346\274\006U\356\274Cz\367<\374\004\023=\243:\021\275A1><\036\336\031=\231\277#=\335\317\021=\302\345\307<\010\007\342<_\327\t=F\016\331\274\t\r\312<\361\315\007=\260s\005\274\367\344\320\274\020\226_;\235\340\315\274\363+\312<t_(\275H\367\224\273\262yE=\t\310\\\274\210\274x<p\306\256<\201\260\371<\244\350\311<>\322\027\275H&\030=\227(\254\272\347q\234\273\r]I<\256\330A=R\351K=Q\336\222\274\236\022\256<\303\324/=\275\001b\274\034\014\201\274:\353\016\275E\266b;\260\221\331;&\017u\274l\340g:n\223\201\2740\235\300;\005\257O\275!\351J={\263\221<\367n\364\274\230\221N;\370c\307<\025,%\275P\212\216\274\230\376V\274\034-.\275\3177%\274!\233\202<\007/\205;\003\314G=\342\303X\274\325\037/=\346\210\220\274N\203\266\274*\350\256<\305N\315<W\332\212\274f\276\035<u\337\014\274\211\327\024=6pm<\251\2373=\'\212\233<L>/\275\236\204o<o5R<\374R\313\274r\020B\275\\F\333\273k\305\233<\267\242\355\274/^\010\275\334\201\215\2743d\246\274s\364}<Q\353\212<-\270H<l\352&<\261\357\035\274\263\323\321\274\nHr\274O\303\000\274d\363\017\275\355j\315\273\r{\264\274\264Q\351;_\224-=\212\021\010=\236]\003\275\320\t\234;\375\2027\275I1\032<\366a\260<N>Z\275\312\3019;\336\"_=\316\240\t\275\320\342\245;t\254,<\226\034\366<J@\023\275v\257\007<\350\004\022\2756\353Z\275\256\006u<\"\036\326<\252\004A\275`\021\262\274\261\005\205<\277\210\200\274M{\314\274.<C;{\352\271\274\331\363\005\274Y\004\225\274\304\244\007\275L\2072;S\343a\274\255,\251\273\030e\267\273M\\\006\275\252&\345\274\256Z\230;B\305\031\274uc\261\274f\326\372;\315\217\037\275\330\250\n\274\366\333Y\275\352\245l<Y4%<Iq\003\274JT\025=D\355\000\2752\236u;\360\032\223\274-I\365\274$q\023\2758S\301<\000\r\336\274,\307;=\343\214\253\273:\003#=5\265L<\321g5<O\364\265\274\300V\207:fN\030\275%\312\323;\006H\021\275\320lD=\314\331\222\2743%\222\274IV\313<r5Z;\363D\247<\3709\372\273\262\215\213\274\\\022\024=_\231\035=\217\026\t=\005\271\007\275\022\262\251\274\225\277$<\037\277\003\275\317\246\026=\320\003R\274\340{\345\273\352\351\036<f\312F=;\215\312<\216\277G\274\225\237\276<;K\033\275\354\373;\275\002u*\275\024\2526=\t4:=\336\031\207\274\220\247;<\343\270b=\253[u<^\301\310\2738~\367<\2765\357<\236\213\"=H\3151\273\311Vq<#\264)=\363\354\333\274oc\036=\314d\240\274\npA\275\032\202,<\021\014\010=\025\232\267<@\333\224<\234\203=\274@~+\274\246\013\250\273\025\364\020\275G\205Y\275\317\363#\275*D\030=\345D\337<%\224T\275\031q\214\274\033s\022\274\021k\263;\302\367R;\010\233<=8DL\275\356\027_\274\021\231\247<i\037\306<.\307\272\274\315\277\325;\274P \275\025*\016\274\272\025\002=i\017y\274\277+\223<\204\2200=\375\002\244;T\257\227<\225\275i\274\2216\030\272S\201\323<\330\n,=,c6\275r\201\272\273\211}\034=R\250\237<\231.\335\274\010\264\025=T\225)\275\317\267\036=\306L\342<\265\302\2748 \036\206<\263I\316<\016T\025=On\031=DY\025<\2668\274<\r\244\373\274\000\303\363\274\r\332\035\274_\0201=\210\241!\275Rx\"\275\t\371\000=\276j[\275P\361\036\274\254\006\260<\030\331\320<\222\336\005\274\367\"\272;\211\332\014\274\277|\025\275Dn7\275\206p0=\336\214\273<\033\230A\274\253\345\324\273S\341*\275\316\373\237\274\305!I=+\266\315\274\334\307m:\276wS;g\222\207\273\327\037N;\262\300\372:\261\332\020\275\346\267\310<\322\220\026<\010\016\214;`\2425<c\251\243<\377\305\005\275\335\261\022=\021\301K<\032\275N\273\240C\242:\2036\r\275\342\203\365<\215b\'=\273\212\025=\025h\n=\001\023\201<\300\255\316\274\322\353!\274w\0377=)\346\001;\300\'p\273\263\354z;Q\217\232\274\275\024\321<\321w\223\274?|\316<\210<;\275\0057\371\274\025\004\324<\354\022\340\273\204\243\004\275cdB<\221\036>;\223\267\224\274g\347(\274\367\234\337\274\232f\024\274b4\332<\010\266\366\274\264\341p<\3169\033\272\261:>\275\021\342\344\274S4\321\274t\374\322\273\361\340\240<+p?=\341\357\317\274ldg\274z!U=\214\247\346\271\347Z\006=\'\nV\275\362\372\323<\367\360\347<VkW<\210\210\025<\374I\312\274\323m\225;\260?\236\274\341<\370<\324r\205<\213\263\257<Dz\227\274%\340\220<V\324\006=\215\225\026\275\324\314\303<\240\017\373\274\320\374)\275K\302\357\274\201\256\3139\217\027\345\274\263K\300<\366\217\201\274\021B`<\334\251\311;\374\275\016\274\300v\202\274ZY\356;WP\030\275.}\370\273y\255@\275\223\301\213\274\261\200J<\202\340a\274\337\212\033=\227}g\274r\2156\275\277.\023\275\235\376-\275F\344\313\274+&\203<\004\005\316\274\004\334\204<N\263\023=@\227\026<-\230\370\274H\312>=\242\036\304\274\221R\261<\211\350\001\275\2703\355<cK\034\274p\006\003\2751,\275<)\204=\275\213\373\361:$\235S<\002\003#\275\261d\361<\r\254\242<A\r;\274\236\244\275\2740\351\346<\366\316G\2735\271\035\275w\235\302\274N\375\312\273\350\344\353\273\251\326\277;\357\036\237;+\n\314\273I\334\022\275\350\265\307;i\236\240\274\264\250\363\274@\326\265:\331\017\313;<\017\334\274\256s\265\273\331\313\026\275)2\225<\343XT<\307\010\255\274\227\017\342<\304\253r\274\344\2000=\243\257A\272\370\261G\274\261\250&=v\230\016<:\'\002\275\302\305\214\274\270w\273\274\333\320\346;x\336U=\363\303(\275\320\322G\274\275-\343\274_AF=\3404\365;\276`\310\273c\243\026\275\231f\025:\255\240\343<\254\217\021<\350\344\032=\002\2553=}\237\001<\347\347\233<\002\361\013=\344K\021\275\321\224r<i\263\3509\270\272\324\274]%\327\273\242\r5\273\020\231\000\275PS\201<\202`T\274#\037\277\274\370\213-\275\271\216\037\275\001~\315\274^\3235=\377U\350<v\267\351<\017T\265\274\320\324\244\274g\200&<\377\265\355:\351\324$\273\336\356#=\366R\016\275\316g+\275k\325\265\273\201\255\301<\3144\333<@\006\315\274\222\266\220<D\325\242<\242\331\357<\002\331\026\275\320,\341<\220\212\034\275N\"\241\274\000\255\261\273\314\371\027\274Jz\232<d\006\353\273T\253\332<\220\002\265;\216Z\033\275a\036\014=V\355\261\274\251\355\200<\326\341\025<\031\320\020\275\255\335\210;7a\214;\3160\271:\000\315\021<`\004\345\273\353>\000=\325\240\266;(\340\033<Ixd<\354\244m;w|3\275\336\223\003;!\030\200<Q\244\032\275G\367\353<\240\357s\274T\303g\275n\203\353; \242\351<]\304\266<\024\230#\275\333\017\'\275\243\023\202\274\006S\207\274IY\031\275\223\207I\275,\253\021=\024\233n\274\2101/\275\200t\350<\223\326\337\272\226\306\007\275(1\267\274WI\310\274h\003\227<\'\303\267\274GKY\275F\323\213<\250\2022\2749\005\360<\001\250$=G\023\246<\351\3775<2(;\275\236\213f<\2359\000\275(=z<\266\264f;sV\235\274k\021\367\274\260\\\257\274U\357\253<\224;D\275\201\nn<\016\274\257<\016\367W\275\210q\320;\034\357\315\274\272\r\326<\272`\313;\235z\301\274[\324\366\274\342\264\035=T\324\361<\t6\243<\341\355\316\274\177\003\300;\226\236\221\274\007vV\274g`\257\274\332Z\010:\272\005&=\377\347\265\273S\270b\274\302\016#;p\037\037\275\234\021\273<6v\260\274\013\300\263\272\022k\353<\261\254\232<P\3130<\353\r\226\274\3215\200;\223\022\216\274{\r\033=\026\361(<\200\020\005\275\263\016\177;\030\236S;]\313\017=\n\252+<:\263\032\275Ae9;\255\266*\275\234\262\003=6\"\010\273\331\206\345\274Z\n.=\310\026\005\274\221W\001=/t@\275\2077\206\274w`;<,\254\320<\364\321\277<0\202\022=\227)S\2754\303=;\r\2627\275\235R\325\274\303\322\300<\311v!=\256\273\'\275J|3\275?z\036\275&\365\316\274\350\320\313;)\311)\275\263z\335<T\226\327\273SH\262\274\2746\266\274A\022s=L\267\027\275\211D\267\274\0025z<\361\232\320<\036\335\'=vW\027\274\360w\016<!}\031\275<O\321\274\334\344\025=G\331\251<\013\374\023=ue\r\274\036\n\'=V>\025=\262\220\033;x\340\017\274p\222\312<\030\250\236\274@\254\304:<\233\303\274\362\314\212;\347\n\017=h\247\004<\212\3450\275\340\235\033;\003\377\347\274e\261\312<\033\347V<c8\360\274\004\374$=\0305\r=\253X\007=\203 \352<\032\356\005=a\036\313<\315\376!=p\n ;\241\030\227<8(\317<\337\"|\274/I.\273!h\321\274A\314\261<\003\"\330\274\273q\354\274\371\370\330;\322n+\275ZS\260\273Y{\007=\300\343\354;\007\221z<\346\310C\273\235\273y\274\323l-\275\204\205i=\335\377\227\273\324\372\377;Z-\245\274B\020\331\2740i%\274<v\317<\302\253a\274\314\311\256\274ws\251\274\033\256\351\273\267n <\356\213\327<.\337I\275\364c\275\274\265:\352<\344%\013\275\367D\000\275\361\251\256\274wX\302\274\300j\255\274\033pQ\275yy\207\274~\3609\2755:\\\274(\270\322\272I3\370;\267\261\"=\366m\272\274\250\322N<\211*\337\274\246\001v\274\214\rm<\360\"\n\275\031\326\241\274\211\224:<FO%\275\347n\027=\330\2345\275o\244\242\274\236\265\t\274S\342;\275UOc=- \373<\016T\027=\365\335\3639\213>\n\275\371\366:=\261%#\275\340\035T<\361\232\037;\257\356\237;\257\221\320<\320\222\317:\231:\036\275\316\036\255<J\031\226<\213\223\275\273_\323\307<\302\272\370\274J\356\250\274D\365\321\273\023\3725=EXE\274\322\245\230\273\246\\7\275U\022\021\275h\213n<>\031\340;\372N\354\274G\342\212<\241F\221<\352P\271<\310\321\272\274\212\360\013\275\200\003\252<\317\244F\275dG\020=\212\367\267\272\244\301G=c$\275<\211L\267\274V\236\'\275\026\022N\275a\371\000<\036\335\000=d8\343\274\273\337\342<d\237\003\275\255\232\013=\3479\217\273\221\363M\275\340\016\364;\033!7\275|\263\306\274Ul?\274A\277O\2734C\n=\374\201S\275ldA<\344\314\321;E\300!\275k\r\001\273\254\353\351\272f\242\022=kM\030\274|\270!=Y\376\334<\246 \"=\356O9\275h\224\357\273\252\037\332\274\243y\377<\363Q\243<\0166\307\274~\317)=\021\273\022=\237\256\213\274\025>t\274\364\206\037\275\240i\222\273\266E\t\275\035\345\374\274\330\220\014<\250\221C\275\r\000\031=\274\207t:\253\324\037:\372\371\037={i\316\27463\001\274\273>\270\274F\216\201;P\224\302\274\256\372.=\211\to<\027\327&=(p\237\274b\013\250\273\2415\004\275\341a\232\274\347\200\255\274\n\357I\274\276\265\307<P[F;0\241\265<\233V\024=W\313\007<\026\320\020=\3345\037=\350\016\273\274\275\"(<\226\307G\275\313\304b<\301\375\000\2756G\016;\223\321\343<(@<<\t\347\346\274\036\320\266<\222hF\275zH{\274\342D$\275\"\373\377::\3440\275C`X<\2205N\271\344\356\233<\254vK\275\001m\225\274\330\306\253\273\205\311\031=\2454L\274fS\316<\032\264%=\313\244A=\022\005\256<\361\361\335\274G\332\210\2736\017\013\275q\301\343<\334\260\005\275k\203\352\274j\370\031\275v@\007=\227M\202\274\312^?\274\264\230\374\274\270\257\004\275\316\210\220\274\231\017\355\274\272\356\021\2750\325n<\243y\373<@\212\227\272vV\004=\024qM\275\260V\026;t3\263<p[x;#-\353\274\010\324\035=\377\372\025\274\332\343\242<\261-\306<<\203\254\274\251./;8\2717=\201\006\014\275]\211G\275\350Z\t=\306jm<\273v\037\275\340\236F\275\236\351\0378V\272\345<\010e\016\275\360\007\364<\356\273!\2754\235\310\271\210\320\245;z\252\364<\261\214\301\274\332\317\204\274\340\345\003\275\014\217n<\0203\347<k\356\211\274\363Q!=$H\346\274I\343\214;F\320\2249hQ\266<\263\277Z\275\207D\037=\006U\275<*\010\314\274 \254\035\275\334\345\357<A\036\310<p~\326\274\243*\r\271\330I\000=\344\217/=\211\325\253\274pG\372<\246V\'=\255kN\275\2678b;H\255<\275\203~\233;(\344\373<\203#\270<\362;M=\2651\025\274S\347,=\3117\003\273l\216\n\272\230*S\275\203\335\304\274Vu\024\275\3206\333\273\267\364C=M^><\211$\030=\225\230\220<eRH\275\203\r\007\275\'\002\034\275_V2\275\312\266Y=\224=|<\374\354\352<U\034\364\274\330c\262:M\372\326\274,\363R\275e\311\013\275\321\231\031\275\r\272$\275\301\027\204\273\360\211\010\275\341Q\377:\270\342\340<\022\177\347<Bwh\2742\020\030\275\322\035\003<_\213`\275\317%\"<y\221-\273\222\302@\275\356\370\371\272\204F\267\274\275\016\006=)-=\275xP\340<0\377\303:P\273/=\274\265\375<)LV\274\0321\256\274\003y\025\275\375F\306;D`\024<\005\235\035=\202\336\214:\013R\036\275\017\204S=\021\333\006<\r\333\377<\207\032K\275j\312`<\270Q<\274kw\n= \221\016\275\315\032K;\371\303\316\274\351\316:=\327\257$\275K\305\n=\250\261\274\274\221\230\257\274\363\236\001\275\375\214\002<@\230\276<\2464\251\274\272j\027<\370\342\344\274\350\310\206\273\312&\223<\206X\353;8\311\373\274\251\177\337\2742\367b<s6\221\273\363\035\374;\254\230\343\274R/%=\247\240\343<\177\277\036\275\213\200!<\332T\036\275W\362\032\275\236\272\273<F\332\237<+\003\014\275\367?\017=\000\027I:\363~#\275\231T\211\274?\257\031=TY~\273\325UR\275\360\034\337<\376J\350\273\222$\003\274\202\314\341<\360D\304< \014\223\273\000\302\360\273l!.<\276\235\014\274;\343\032=\234\007\215\274\253\226\037=8!Q<{\347\313\274k@\007\275\325\226\316:\240\343\340\274\024\002q<=C\260\274\322R\352<\234\033\375<\352\354)\275\372\335\307\274\252E`;\200\021<<\204\301\302<\034\352\201<@>\236<\247l\037\275+\346\027=|sp=@\377\261<\005+\347<\200 \'=\016\020\227\273,\252\244\274(\030\035=\022%\332\272\254\031\315\274])\344<\037,\240\274\327\277\006\275\242mK<\007\253\313\274\255\252y\273__\003=\016z+=\t\004\250\274\374J\337<#\253\324\274>\342\304\273Gz%=\234\\\267\273,\376\013\274\354\242\037\275m\270\006\274,\346\234<\341?\315<Jp\267<F\337\363\273\202\342\014=O\243&\275[\304#\275?\316\263<,I\247<\214G\003=\007\326~;a\242D\275\227\211F\274|4\035<\336\224L<\214\361\n=\231\367\342<P\333\233;\347K\346\274\220D\010=\203!\022\275\226\276b={\340\031=+\217\300<\006\361_\273\3313 \275\201\232==\356\026\337\274SS\277\273\220*\364\274f>\254\2743\204\020=d\037\036\275[\367\217\274\211\212Q\275\334W\371<C\320&=\020\343Z\274O\202\266\274@u\021\275X\002\324;\003\262\350<\227v#\274\005\337\206\274Y\356\\\274\014\031\212\274\371\370!=\356\341\374\274F\341,=4PD\275\336\032\320\274dC\236<}\213\013=\320\3520=1~\266\274\376\251\035=\373\245\014\275\204\3165\275^\262j\275\030\351\005=3_\332<\266\244\300\274\354\3136<\306\337Z<\327%\241<\354\371\366\274\231q\366\274\240S\365:\341\221f;\352\010\363\273X\345O=\020\217\n\275{\361\023\275W\374\201;p-\231\273Q$\030\273\207\001\007\274\230\214D=\260\020;<\353\216\201<m.\262\274\313\r-=\021\212\232\274X\'0<\000\230W8a\2242<1%\010\275o\226A\275\2410e\275\"\372\033=Q*w=\233WM\274\337\321\340\274K{\367\274I \312\273\221\334\361<Z\365A\2750\303-;\363y7\2756CB=\n\213&\275\200\370\0038\316%9=={p;0AI\275\323U\001\275\270\'\200\274j\2774\275y\241X=^\202\001\275I\263\003\274\370u\'\275\270F\222<}\267)\274\331\206\257\2724\324\370<\020.\n\275J\274\014\275\250O\264;F+\326<\341\203\'\275\333\316\357\273\230\027\255<R\366p<\250\327\026\275\364\343\323\274\217\323\027<\233>4;)\237)\275R:\023=\372\350\353\274\250\032D=\000\231\206\274\330\254\037\275f\022\247;(\335\216:\3071\027\275u\347_;\214Z\021\275\214\024\3219\316CA\275\235\261E\275\276\343\335\274\024)\346<^\207\232<\261\020|<\323\2105\274\222\237N<q\016q<\333\016^=\327\377C\274qp;\275\363x/\275y\366%=\231\177\327;\360\326&\274\2044\270;\343}\'=8\001\\\274-\255\330\273\351@\343\274\374\017\213\274\242\r\025=\265\326\254<\255\033\206<\254b\016=\266\333\005\275\307\355$\275\004gM\274\275g6<\251\231\322<5\262\023\275\200\257\214<\033\031\324;\177ap=\020Xw<\257f\270\274\311\0363;D\347\262\274\203E\357;?4Z\275\360\330\214<\234\300\312\273\350\310z;0\031<\275\300P\357<\215\334\324:\345>8=\230\366H\275\303\000\037=W\027\216<\306;\335<h\006\344<\004\210S\273\360:\021=\206\024\264<+q\010\273q\003\375<\233\021\234<\2227\236;\336\334M\273L2\t\275\326j\252\273O\017>\274\357\243\2039\26515=\270N\326<,\307\252<\345\371\367<\256\022j:n+2\275zeP\275\360\3411=\363C\036\275P\222\016\275\357bW\275\273}N\275\200-9;\225j\177=\255\355\241<\037\311\023\275\271\031$\275\"\364#=\020\302\034\275\222\021\370;\240\321\216;Q4\270\274\343\334\204<f\032!=|c\n\275A\031}=\314\t5\2758\030\352;6\"\022<\213\004m\274\2064\036=\010\365\372\274\274-)=\2007\'\275M\262\331\274\033U\020\273\036\217\315<c\366\261<N\3350<\352\254(\275V+\217<\350\007\214<X!\373<\253\335\254\274\211\027\271\273WD\007\275\343}\254<\342\2427\275\223\240\373;\236\223\023=\235\014\003=\0102\233\274\374#\242\274z\"\037\275gEl\274#y\323\274\225\r\013\275\007\3035\274\336\r\363<\230\250\374<H\360\245;d\312\001=\'\204!=)\333\0249_\253\232\274\302\237\324\274n1*\275.,\315;\252\301\226<\037\014\250<S\030\233<y~\031\275i\361\177<uC:\275\276\r\222\273\305\353\232<\366\373\000=\230f\320<\366s\310<\352\025\356<x^\333<\360\313\244<k\n\327\274|\273\030\274\016x4\275\354!\302<\302\237\376\274\033\221\r=/\025#\275\332\302H=\206\342\367;x\265\014\275L\266\032=}\315^\274\311\336\305\274\312\324=\275i\235\005=\227\256\t<IK\001\275X\361\240;\251\325\331<\263\245\005=D;\335\273\351\023\016\275?\333\246\273\213\024\267\274\327\371\226<\333\266\367:Z\033\240;\213\235e\273\230\010\315<\3262\322<\035\233$<\331U\'\275!\002\001\275\227\217H=n\233\024=3v\212\274~[\031=\202\035#=\264Q\326\274*\210c\273)\032\014\275\234o\343\274U\n\033=3\n\322\274\r\371U\275y_\247\272/S\244<\026F\035=\217P\005\275W\363\r\275\210\371\032<\021\0257<\251\320\006=\010\036<\274\211\360\023=bm\221<-\200\253\274\346\255?\2750\355\201<\344a\332\274\305\203\211=\022\303\030=\3349\210<\201\232\260<\374o\331<\302\256\036=\214oL\274\027\200\373\274\216\325\007=D?\017<\245\250\243:ZpX=h P;\263 \006\273\271\031\377<\3073 =X\315\353<\377\361\030\275\231O\274;2\177\255:\327\241%\275\373\017*\275\021\0318;\214\031\240\274\016Q\'=\007\314\356\274\360-M\275h\276\237<\326\211\373\274_=\002=LX\227<\215~;<\211\331\3209\251\210\316<2\352\032<\007\233\003\275@\363\340\274/\271\265\274\3605l\274$\t\324\274\261\211\212\274^\ns\274&y\261\272$\250\343<0\223\\;\332\234\005=9M+\275]\225\223<\234>\206\274q6N\275m{3\275\275\345\"=`\202\246<-\320 =\021\031\300\274lp\007=O\314&=lO\005=|\320\376<aL\375\274H\266\022\275\014\355\013=bE\005\274\251%\243\274\2065\266\274\007J\003\275{#\006=\006O\306<\231n?<\240\351A\275 rB\275\233\3462\275\311l|<\037\322T\275\0073\014=\300O\232<uO.\275`q\250<\205;\005\275\340\";\275\365\302\037\275?\005\366;\305#%\275\213i\216=\214\301\233\274\006\321{<\336\233\307<\310\023\025<\032O\027\274\325\332\367\273\367p\314\271[\342\277\274\344\273\3529\021\370\241<\334\016\366\274r\004N\2731K6=\327\343\022\275\022\373\032\275i\351\253\273\206A\023=W\3453\275\036\376\233;\240\253\244<\330\201\221:\014\214\013<\361o\346\274\352$\026=\301A\214<\3060\215<\200h\014\274\014\303\035\273~\357\r\274\\\014\013\275\000Nq<s\250\224\274\236\373\343\273N\332\022\275L\316v=\201\036\375<\327Pv<!J\356\274\326\321\255<\304\331\035\275\021:\006\275i\260V\274\245[\221\274\242\217\216<\201\036B=\234\000\002\275\t\303\273\274B\373\331\274P{\354\2747tD;&\344\207\274t\030\034\275T\031\220<\002_{\273\302\300\037\275J\234)\274:\215\272\274\014P\033\274\037\270\263\274;*\345;\221k\006\275\320\027/;Z#\304\274\225\025&\275\024\0305;\255\n\010\273\243Y\033\275\346\001\356;\301\212\323<\322\2342\274\357\351\n\275\330\342<\274\021t8=^x!=\350\201\023=\003IF\275]\023\030=\351+\332\274?{\215\272V!\326\2735\370\';\342\241\374\273\366\365\207<\227C\231\274G}\'=~\023.=\032\225\371\274K %\275\254\035\t=V\272k\274\377\365\246:\301\304\240;\343\264\217<\352z\021:\2777\r=\352a\'<\273\272h\274\212\313\003<\223\036\201\274j\344n\274\230\264\376\274\037B\016=f\272\314\274b\3733\273\316\206L\274\204!o<\330\245\0019%\273 =\254\254\234<\310\000W\275\312\365\270\272\225\372\306\274G\3454=\2473\026\275\326\032.\275\371\337:<\024\341\010=\251\267\263\274A\203;=\005\236\021\275\247\301\312;\200\317):\305\2636\275E\032\226<\002j\324<\32463\275\265{\324< \373\003<\234%\000\275\253\277B<\311\356\023\275\221\353\240\274\2025\037\2748h\211:\014\373\003=\271\017@\275@\337=\275\006k&=\3521\240\274\325\006\220\274\310\215\000\275\r\266\367\274\036\201\243<XX\033\274\236\014\303\274\253\001\235<\361\253\304\273\200\304B=u28\275Hr\301:\227\361\327\274\301\253\014=\034\217<\275c\214D\275(f\251\274\276G\270\274\353\266\241\274\263a\271\274\023j\027=N\332$=e\340 \275\000\034\027\274\221\3028=\307R\273\273\344\334`<T2\351\274\234\210\252\274-\245\025\275\317Y\033\275}\246q;R\324<=`\014\327\273\031)\204=\376\376$<%\003\220\272\360[\013\273T\t\213\274\274\005\237\272\370\211U<K?E\275q\030c\274\202\346\357;\231R\017=\324!\354<\240\366\250; ,\013=\343gI\275W\314s\273\370\014)\274\255J)=e\227\314\273W\263\026\275`\263\204;\256\376\267\273\311\026\225\274\215d\375\273\226\377\004\2754\332\021=\336\274h\274\222\200?=\370\241\336<\344t\206\274]\340\034=\027\303L\275\234ms\274\222\004\036\275!\032?\275\013\200\367:\275\276n=\367:\302\274\245?0\275\360\325q<j#\335\274\215\215g<\347M\351<\305a\027\275f\332\020\273\357\224\212\274\030\350\236<mJ\367<\330$-7\007B\272<\020a\340\274\252lS\275\031\001\247\274)ZQ=\036\206x\274\260N\010;\376\034!\274x\302\223<M\231\346;\021b\305<\246w\r<\003p\030\273;_/=F\352P=9 \000=\010\200y<1\361\361\274\257\2236:[\326\r=\274\254\010=\000l\017\274\233O0\274\370\257-\275\030\302z<\303\260)\275\241\277\032=aJ0<<\276<=\205&\304\274\251\r+<0\037f=\370\374\022=\267\335\305<R\321\260\274|\335\224<\330\004\005\275\222b\215\273\310pN\275\t\374\r=\3232I\275\2525\031\274\233\271A\275\022W\010=W\376\n= \334L\275\357*e\275\211\256\342\274\276\213\277<q\262\372<H\2032<Zsj\274\336\232M\275qs\350\274d\216J<.\261\232<F\246:=\035\226\366\273\326\353\325<\226g\223\273ms\025=\026\340\322\274w\345V<\345\020!\275#)\177\274o*\r\275\274\262\\<\347\271\325<\325\013\371:\212\2213;\024\205\374<p\022\306\274x\3018=\330\276\020=\214\357u<\3259\211;\310 \313<X\240O\274\363W\375\274\367\364\241\274\361SM\275>\306w\274\306\026\033\275F-\031=\321\355\230\273\334?0\275\317\354K\275\3513\030\275V\241\213<5\252\302<\235\232\206=\037|\201<\304\206j<\033\275!\275@\247\271\274Z)\257\274.\250\352\273\014\021)\275oP/\275\350\237\272\272\300\333 =\226\377L\274\342\273\004=u\313\332\274\004\306\010;3T\205\274,ha<\317n\005=\304\215\r\275)%\'\275\204b\017=4\363\270\274\334\246\021\273\nD\204\274\316\273+<\247\235\021=}\305&=\355m\335\274\331A\021\275\027\205\346\273\001\320\222<\302\026\277\274\355\tk<\000\253\030=\033\023`=C\253\301\274\022\227\316:Q\023\225\274\330@<\275\365\336\303<O\244O\275\026\233m\274\241\255N<l\340\n=\347#\352\274\213\312\003\275\010\346\377\274\335\340\201\274\031\327\270\274\364C\364\274L\3320\275/\271/=N\3259\272\230\374\037\274\026\354\376\274\352\212\321\274\3660\251\272;\306;\275\242\263\'\275\346\3061=\207Q\333<1\325g;D\274G\275\2357\022=r\212\327\274E\312\327<\372\343\276\274\277a\212\273\267\231\225\273\003\315\355;\027\351\267\274\377\337.=s\2336:\370\336\027=O8\032=\253.\217<c\212\332\274\351\256\003\275\275\006\253<\320\333\277\273\354\306\001=`\215\021\275\313d\214<\341[\347\274\376>\247\274Sj\'=9c\261<\212\324\020=\240\243Y\275W\227\220\274\340\354\224\273\202E@;\255#\352\274\310Av;\262\272J\273\036e\316<l\004\254;je\324\274\200\025\004\275 _\"<\340E\222<\333\306\\\275\207\261\001<Q\335\020\274&|3\275\204\324\230\274T\3572<>\032*<\n\345\023\275\364o\002\275\330Ey<C\363K\274Q=\034=\243=\213\274\357\332\037\275RD%=\307\202*<\014\266\035=eV\022\275\301N\024\275\312(\031=\\\t\241;~\365\217<J\024\327\274E~\007\274\344\227Q<:\266W\275\372R6\275\277\324V=\246\202M\274\030\223<\275\350T\332\274\273\007\253\274\300\367\200\274\303\227\034<\2038\365<w9\353\274\006\320L\275\341\004\007\275\265\256\367<\245\016\330:\255\001\377<\251\003\003=\276=&=\000\207b\272H\331\370<\261\007\237<\024\325\264<\272\235\000\275\270\204\t;\270\272\241\274\201\221\030;\014\234!=XT\373;+\\!=\364\340~\274b\364\260\274JUN<\001u;\275v>\016\272\312\312\n\274\240\333\020\275\005\2574=\357:\272\272+\366\243\274s\322\223;\302\234!\275\234\2320\275?\215\000=$|x<\327\017\221<\3613\374\274\237*\332\273<\013\010=HdO<*)\007=\2155\020=\243\277\270\273\242\350\351<\223\207-\275\326\236|=\233C\336\274\314\235\t\274\312+\000=\030\007J\275\203\345\202<\323\316\354\274*\034#=5D\225\274\314\357\203<\'D\327;\216;(\275w\237\345\272\302\314+=\330\354\370\2732\370\025=q\333P<WSm\274?Z\201\273,n\317<M\254Q=\312K\001=\367\210|\274\014\022\021=\037\263\230<g\271\010\275\261\350T\275\000q\211<\177\034\234\274a\330@\275\376\307\342\274:\205\014=0\363\223<\232\253*=?F\016=\020\246\003<D>\t\275E>|\274b\342\r\275S\251\255<\0104\r\275\036\235\023=\333f\201\274%mB\2745\250T\274\346\010\346\274Z\002i\274N\031\345<\357\205#<\334\261\024\275<\313\317\274\375\312`<\220\036\350<Q\005\003=\215\000{<\244I4=\244\0310<L\225\367<=\235?\275X\337\013\275M\240\357<A6*\275\337$\236<\254\270P\274\035p\350<\351\'\367<`4(\275\237\204\370:\363\332i\274\376c\206<f\251\023<\361\305@\275;\317\334\272\001\370\232\274Dg\234;Qe\353;g\032\222=\235\2220\275\343b\035=\261\271h<\241z\316\274\306\254\227\274RL[=\303j\314:\335\335\215<\200\004-\27451\n<Au\374<\257\206K<y3\314\274Fu\226<\300e\247<E\260\332\274\341\260\313;\307\264O\274\261b\267\274<\316\213\274\346?M\275\204\005\022<\002\354\023=\'\233\035\275\302\350N=\345O\311\274Q\221\243\274\213P\035=\332\275v<\375[>; \314\202\273B@P\275\302\365\207\274\235\260i\273W\230N<}i\342<\215\331\325<\375\253\264\273v\2448\275\3561\324\274w\211y\274?\220U=\316g\326\274\034\2162=a]\235<\'\'\010\274`:\013=\235A\013=1\3768\275\225wS\275\377YK\275z(\341\274\274\207\024=IZ\276<\272?\003\275[\002\253\274v\2728\275\215\\\215\2738\277\304\273\334\023I\275z[\246\274\003\021\213\274\177\240\212;\264G\261\273\252\027(=4\211\014\274@\0349<\355*T\274}\025\224<\213\007\237\2734\336\010=y\246\330<H\342\266;\356\337\022=\020\242\360\273)\"\222\274\241lU<\301m\230\274\\\314\255\272OX\025\274h\300\305\274\303\333\034\275A\335\037=\222\\\212<^\213b<)\227!\274t\206\310;\221\"\302\274\242\026\324\273\366=\006;\r_\245\273\027\272)\275jU\376\274^F\331\274r=\312;:\221\332\274i\242\361<\200m\373\274\275\024\274\274\344]B<\034\217$\275D\013\005<e\236$\275\025\371\252\274\234\253H\275X\225\010=\364\021_=\270\304O\275c\263\324<\224\326\311<T\2058\275_\311\t\275\224\205\001\275: \0369\0008\253\273\237o\005=\355\260\201=\243 \021\275\331\272\242;2u\214<\316\315\035=\375\2628<zK\t\275GO\325\274\275\312\230:\263\257\230<LO\231\274es\227;g\340\027=\274\273\326\272xB\205\274y\204\r=\240\207(=4\206\201;jJ\204<\355J\225;\224%\312\274\321\315\033=D\251E=R~[\273\215w\t\275\223X\001=\030i+\274\357g\266\274&m\363< 7\365\274JD\2569\036\n\251<\022\356\001=\335q\033\275a[\275\273\001\3374\275\025sl=\272\375\241\273;\326\360;/\327u\273\306\251\230<%\007\005=\300\302\355\274-C+\274\306qC<]\035\271\274\036\302?<\276\232\033=WK\023=\333\262+\275\347\314\333\274\224\005\010=:\036_<\272]\177\274\020\014\022\2749#/\275R\352\034<\240\251\016=.h\235<\026H\212;~!\373\274L\301;\275\266\010\235;\265\202\373<\tL}\274,\251\221<\306\375:<\342\222\026\273\206\206\327\274\010\335\376\274\300q$;1\233\013\275\303\244n\2746\336\033=\222\311A\275PI\214\274\252\007r\274dn\313<\021b\347<\334(\250\274\027r\226<\310\203\212<\265t);\330\345.=\221**\275\rw`<\246\t\246<\3468u<r`\026\275\352\223c\275`3J\273\370\232\360;t\240Z\274G\272\223\274\223_`\273\203\204\256;\351d\361<\026C\022<\305r\355<2\307g\274]\265\026=\264(7\275\t\325\353\274-\020C\275\335\244\241\274!H6=\333a\240\274#m\243\274\277\375\035\275\3453\207;\001\220\002<\265\274[\275\313\331\320;$\0005<i\022\267\272X1\336<h\332\000;\212\312\243<\031\'\316<e\024\275<\217b\361\274\211)\377\274#Y\324\274_\210\245<?\013\027=;aN\275\225\361\340\274\004(\237\274K\325\215\274\342\007\007=*\301\005<\233\323.\274^\333L\275R^\t=\270\373\307<\251\364\335\274\345\033\031\275\257\277\347\274\374\022\002=%\'\257\273\035)\003=\376\033\014=\303\342\036=\250Ik<(\367\215<\346}\263\274\342I\333\274\250\000e\275%\233\"\275\243\216\214\274P\352{\274\332\256g<R\373\213<\271b\314\273\202\004\221< @W<\344\326\3709\240P\017\275\3654\004\275\247\232=\275\250\005X\275\372\251\225<\020.\221<\221\237\303\274)\303\326<\230\324\306<g\266\312\274\317\310\t=\314\341M=\226\327\343<\201\241\325<\312wZ\274\032!\014\275\2160\274<\027i\276<,X\022\275\014l!\274\257\316\307<\305\264\346\274\216\033\244<\227\274b<\273\177r\274l\361\232<\026\032~<\304\\\214<,\267\006<\337\353\304<\324\003\307\273\"\016\035\275\341\337\010;\307\216\206<\3170\217\274]Qd\274S\326L\2754\222~:\216\033\325<\206\355\233\274\245\337\361;\254\341 \275\304\035O\275]\277\312;(\202c<Zw\223\274\202\226\334\273\340\300\220\274 \372\307\273Y\r\212\274\007\\\342\274\237%L=a\277\023=j\221!=\234\315\003=L\306c\274rg\330<\312\244\362\272\031^\014=\265uy\274\335|\020\274\275lJ<c\312\005=^\315\357;\235i\200\274\007\214\261<\217U0\275v\337\3219\277\335W\274\304>1\274\021\007p\275\\\272\n=J\007=;j\356\022=\207\017,\275\300\306\246<\362\026?=\223#\245\274\000\206\3329\2011r\274y5\034\275tF\007=\214\275J\272l\246\306<f\"\324<\241\323\336\274\260f\246\274~\002\224\274\255`y<\0006G=\204o\264\272\345\026\360\274(\375=\275\020\373!\275\371\002d<\255\362\036=N\322\352<\330\376\326;\202\225\\;\232\261;=\'\313\253\274_4\032\275w`\370<\226V%=\231O\r\275&\237\334\274\332Q\021=\240\200\356<#kE\275]\362\210\274l,%=\346\213\001\275\310wS;\3346\324<:\370*\275\350\211\230<\031\212\'=\203\021\374\274O5\024\274\301\337\311\274\225\273\034=\351\3001=\323\222&=\357\323\340\274p\326g<\333(\t=\220){;%\333\322<\243\035\260\274\037\216\245<\304&\207;\243Y\227<2\265\007\274\247\305\206\274Q\267\257<\374\233I=\361\354_<\254J\362\272\003\005\313\274t\360.=&L\366<\206\014\255;\035\343d<*=&\275\347\275\211<\006`\333<\300(\300;\235\240\005=\251%&=\306\251\260<\350\241\025= \267\267\274\372\315\204\274\253=e<8m=;)\224\031\274pT\003=&\327\203\273\013.\021=\205|#\2759\301R\275\331_\272\274\205\006\322\274o\354\023\274\362#\310<C\020\266< \214\213<l\025\317\274\301\267\213\273\000\354\341;=\031\024=f\344\347\274&G\013\275L\361\244\274R\215(\2752\022,=^\254\027=w:\322\273[\227\226\273\233\370q=\210\331\327<G\230\324\274\233\274}<\270\212\325\273\026\346\366<\234\241Y\272K7\355\273v\345,\275\274\273\021\273\317h\226\274\372\201\n\275\217B?\275\266\377\214\273X{W\275l(\016<\323j1=\032\177\213<\226\350\030=\006>\014\275\227\001Z\274\321\262*<\271\230\333<X\\I\274\tx\n\2750\261N\271\346\023\257\274S2A<!\225\256\274\000k\207\274\3371I<`\300\222\274\333(\352<\217X\t=E2\266\274\220ln;y\330#\2754\'{<?]7=\362\\9\274\310@w<\340m];@\245\010=\n>\024=\022\267(\275%\375\315<\222\343\002\275#\343\036=+\212\010=G\037)=\314\221\031=\270h-\274\014N\304<4yk\273\033\202:\275u\014\013<\347\002\016=\254\237F\274p\262F;\225v\205\274\336\243\365\274\3035D\274\032\311%\275\331@\024\275l&\236<<n\2648J\307y\274i[\227\273)\242\245<\211\342\276\273\232b\260<\002\304\262\274\246\177\373\274}\303\353<\261\017]\275x2\200\273E\211+=,\305\004=6\346)=\261q\236;\372c\010\275{\217\032=\001v`\273z2\224\274\333\305v<:a\377;r(_\274:\207\036\275]\033z\274\370!\005<\272&\215<\315\016q\274\0270\020\275\320\3365=\024\357\"<\312s\031=\351L\342<gO8\275\'\223\300\274\242fW\2747\335\270<C\017\270<9\260&\275\305z\210<\351\003\006\274\251c\376\273\262\310\266<||/\275\357s\017\274\031\362\262<w\237p:\346\0104=\235\n\323\274\316\030_\274^\235\002\274\313\375\005=|!\206<c\333\010;\010\216\377\273g\263\030:\007[\031=\323\031\244\274\244d!=B:7=5[2\275\340\223\263:\217#/\274\370\342\361\274\024\236\030=\0212\3349\370\004\255\274p\031\263\274L\374\322<m:\021\275\252P\'\275\335m\220<Q\343)<\344\353P\273\311\354\013=D\356S<\277\250K;~V\"=h\177\031=\255\246\002\275\265\373\373\274\312\177\302<v\325\213<\277\022\342<\345\\\333<$\375\254\273~\031\r\275\000\362\204<w\267\274\274/6\360\274\016\332\376\274\341i\020=\367\353\023<\243$\000\275N\364/\275\334[\206\274R\252\236\274~ZD\275Z\213\324;\354\213\255<\261t\327;[7\027\275\023\036f;0q <y\325\355<t\376\227<\304\3300\274\307\005\277\274\347\205\0348\374\360\215<\244\215\023=\3224\350<\326\014\325\274rg\004\275h(*=b\361Y<\371{\221<\203\315\310<pf\n\273C\207\345\2749\256a\274]\272\236\274Tt6\275\034\017\023=\236|T;|\315%\275\t\370\277<\0229\272<\344E$\275\2673\007;\252\025\r\275\213\256\326<\321hG\275\227\"\r=\3649\220<\207\354q<3TE\275N\345:=8\264\217;V\351\024=\227\337\343<\337\370~\272\275#\005:\211\377%\275\327\213\022=x\023\360;\317\016@\275\252\373\243\274XOp<\366\027\226\274\022\n\304:\000\035\346\272\221\366\t\275EQM\273\241S\276\273\2468\217<!\237\227\274\311\262\235\273d\301\373<\216\265I=y\214J\275\324\016K<h\263a\274C\0161\275q\235\023=S\021D=\220,\n=\336_1=]\026\335:\211\211\206\274\245\253X=\257>\205<\342\227\035\275\345\033\001:\363\3462\275\003\\\353\272\270\3019\275OR\021=\304DU\275\014\017\243\270\031\316%=\351\367\031=\370s\265\273\205;\267\274\344\360F=\242\247\024=\006\006-=9\3505\275\241\0313=~\314>\275\253\316s<\221\325\246<\331\343B<a\267\253<\247\256,\275\021\325\347\274\230y\363\273p\276\342;\231\356N\274yK\206;*\324O\275F3\321<[\'&\275\253\036\214<\".A\273\\\257\375\274<Uq<\331j\013\275\241\365\022\275lt\260;\271B\004\275\315\261c\2741\320\310\274\276X\036\275>.\275<\222\274\006\275u\323\030=j\030g<I\352N\275cTU=\331Y\010:>\320\205<\337\237\376<N\177D\275K;\226<\276\352\367\274\014\006\277\274\274\3144\275\021\n8\275\330\034!<\350}8=\216\033\034=\026d\327\273\350\r\257<\352\203\323<-\026\033\274\2157\311\274\270:a\275\230\373\304<V:\321<\230\222!\274Q\267\370\274\241\324\020<\\~\226\274\324\236e<g\354\330\274\344\237\270\274\306n\276\274\352O5\275\265\325O<\225\222\005;c;\033\2746\266\301\274\216_d\274\0304\326<\2630\231\274s\356\252\274\265\020\370\273\231\014\013=c\034w<z\320\"=\264;&=kV}<+\000\271<50#\275\330\326\004\274\325\030}\274\330\225\321;\337\347\362\274\263\014$=\313|K\275x\034\332<M\303\236\274\317\366\335\271\213\032,=AK\200<V\272!\274\306\355\255<\244\275\222;\361\242\027\275\377\014\274;i\227\013\275m\237\031\275srp\273\214\001\302<\205O\341<\215\314\177\274\274\200\324<\320\003\347;\242\265\233\273z[\230\2742l\351<\330\220\373\274\373\301\220\274\331\027\276\274w\016\023=\260W\002<\366E\246;\024\332\317<{\262\237\274T\256\"=N\022\312<N\300,=@\373\026:\262\025N\2754hl\274\235\271K\275\251\2039\275\246\313H\275\324|\020\275K\247\337\274\021\217?<y\370\177;\324\343\223\274>\nj:0&0=\036\3346=\030\316[<F\025\321:\237\234=\275_\222(=\215G=\275;\244<\274>\375i\274<!\027=\225\3236\275\332X\034=\375\363\030=\006e\305;}\006\322<4X>=\263E\234\274=\022\357\274\304\265\223<\274\227\220<H#-\275Q\230\006\274\027L\031=~\353\333\274Q\233\317\274\347\233\257\274 \215\342<b\322\366<\317\027\232\274*\211\244<\017\255\005\275H\242S\275\215\206\017\275|\264\036\275\206\2716\275\211\252e\274\364T@\274\032\341\031=\207\264\214<\0378F=a00\275u\316\374<\'tA<\342\3368\273\201\005\004=\320\300I<\000});\2147\270\274\301\r\013=\"K3<_\260B\274}\t\360\27476\013\275\002\261\003\275&}-=-\342\335\274\332\t\374<\276\275\005\275\036)\344<\000\371\270\272!\014\356<\274\004\235\274v\346\034=U\n\254\274\215\226\014\275\257\020\244\274\302V\r<\376A\304<b\\\250<\"\266\273\274\200Bm\274DZ\214\273\\\243#=\010v\376\274h6h<>\035\000\274\257\226\027<\332\245\314<\343\014\253\274x\233\252\274LP\302\274\356\213;\275f\276z\273\017\343\265<\357\3500<\032\322\346<y3\"\275\027M\023\274\2634\233<\322\202\237;\265F\256\272K\210\274\274\3457\312\274_\005;=c\2705\2750$\002\275\r\344\323<\264\244\026\275\377>\221<\352\246\361\2747\365K\274_\202\270\274S\"\235\273\233\305#=\267\324f\274U\025v<\367\305\270\274\300\316?\2750\244@=\244\312o\274x\245Z\275#4\307\272o\323%=\265L\235\274uN\013\275+\356\272;\260C[=Mc[\275\014\352\017=^\001\325;\326&\267\274\010\303\267<g\367\017\274\264\277\307<\360$>\275\270BJ;hcC<\212\232\342\274\002$\242<\213@\365\274|J\323< aI\274x\0143;k\346Z<m \217<\261\223B\274CA[=4,}\274F\365\r\275NH\215<\215:\206<;\345\'\275m\372\336\274\335\017\020\274\032L\236<}$V\273i\341\235\274\017\212\'<!\263\331<\252\303F\274\013~1\275\257J\251\273\020\374\331\273\207]\n\275\304\t\266\274D\371\364<\371#\224\274F<\367\274\376\241\033\275OZ\036\275/\265\226;\312\236\313<\205\332\226\274\337\021\322\274N\254\020\275\261\330\313\274^\227\303<\232z\376\273~\030\307\274\243.4<o#@\275\033\024\036=k\013\032=\036\001\224<\000\333\200:\360\332\353<\234\301\320<\277\\A\275k\212\212<\034\347\035\275\303\001)=\210\246\234<\2675)=aX\'=2!\371<\323\372\\<5G\276;\260\177\021\273\315\251\021\275\310\227\244<g\265B<\261\005\306<\247\\\007\274~\240\260\272N\013\006\275]D\207\274\265\"\276\274\212\253\013=dG\364\274\322</\275\027[s<nd%=$\230\006=\241\205\344\273\224\r\302\274C\336!\275\026\323i<\235\035\334<\351 7\275L\022\226<\372G(\275\2547\372\274\344\203\032\275\032\022\362\274\246L\327<\360Pc\274\324\202\234\274\341\303\332\274\364L\022=[e\032=O\033\t\275\214L\223\274\\U<\275\374\3149\274\234\230\226\273XV&\275\246\022\203<q\244\010=\223\262`<\204\241\006=.\233\314\274\263K\006\275\216Ab\274\351\325\313<\233\246\363<\201\324\374<>\332\005=\351\312\260\274\245VS\275\2230\017\275jF\213\274\224D\310<\016s\206<\335A\353<\330e\332\273\n\275\222<g\007\024;9zw\274\273\0315\275\310\020\355\274\233\341F\275\024T)\274b\236v<P\034\001;\374FP=\3611*<\333\305\035=\347\3536\275\304\3727<\031)[<2A\035\274\320\345\'\274\211\327#=\235\262\002=\263\213\022\274L\223\246<\"\205\332\2746Z\244\274)\275\033=\032\326\024=\010q\007=,u\322;\326\376\002<-\3116\275\3517\022<\326BV<s\251\356\274\375\033`<i_2<\253V2\274\227z\273\274\026\257\330\2723@\364\274_\2206\275\340\3364;\374v\237\274\243\354\362\274S\363&=\230\303\234\2744\003\266\274$\025\006\275\200<>;\347\273\226<a(\007\275\336\310\301<\362\331\006\275\300x@\275\2703\222\273\032\301a<a\366\346<\006\254\027\2757`Z\275\345*:\275jI\254\274C\0355\274\311\336\267\274\326\345v\273\240\332\335\274\177\3100\275O\331\036=\240S\337<\352\305\n\275B\375\240<Da\025\275\240\373\365; \317\273<\234:\327;a\361\257<|\365V\275X))\275P\363\315\273j\206\"=\263:\006=\357H^\274\257\034\245<\264\313w\274\021\330I=\376\035\300\274\375)\253;xd\371<h\342\246\274\372--=\014CS;3\247\256<\021\223\022<\264\366,\275\306\2130\275\0138%=4\275\215;x\213\'=\26375\275\312\344\333;\320\010\261\274\253\352\211\274\344f\005=\215\020R=N!\367\274\226#\002\274X\247F=\277\3442\274\356<%\275\314J\277<\237(\002\275\031\345\375\274\366a2=\'\307&\275\030\203\234<\3237.<\314\213*\275\267\255\t\275\230\267\351\274\332\341\000=okL=\302&\335<\205#e<m\317V\273\332\320*<\032x\007\275\252\026\017=\370;\353\274J\037a<\267\240h<xq\315\274a\024\020\272gc\217<b>I<\240N3\275\020\004\"\274\337\220\336\273@\023J:\001\227\374\273\255\243\025\275n\341\2239\331\034K<\213n\357\274rS\242;\024C\366<\222[\325\274p\342\315<\236\023\263<\000\312\033=k\373\033=\201q\320<\240\215\267\273\"\252\264\274\305\215\357\274\375\366\227\274C\315\203:/\272\177\274\221[\346\274\2120\231;r\244\354<\311o\303\273\\\236\307\274\200\260\242<c_h\273\243\301$\275\202\377\374\273tR(\275Y\026\314<FZ\326;\014\222a\273\234\312\330<\331\024\352<\270U\200<o\346\217\273\357\360\377<P\233\367<os\027\275\033b\375;E L<\274\027\226;\276\371K\275\243\0256=\300\"|\273\226\003\271\274\243\"\005\275`D\003=\256\007W\275\364p\350;h\352\360\273\212\r\367\273\207n\366\273^\242\010\274\275\014\000=P\365\033<\333L\352<\035|@\273&\375\025=\340l-\275+\3134\275x\327C\275\274P1<\300D\003\272\254\350\240;\3621\244\274\333\0201<)v=\274%H\n\275\222?*\275\033\266\217\274\324\216Z<\312\204\232\274o\233\231\274l\033-<\rJ\250<\340v\331\274mCQ<\343;\037\275\246\325\357:\'2\342\274\034\004\353<\346\360\225\274%\201\003\275(9\372<\254\3174\275l!\024=\360\013\370\273\366v\204\274F\333\366<\003\235\355<!\261\305<\264A\021=\312\353\004\275\3403\014\275\2055\376;\304\372\002=\2549\013=?\024\227<\260U\243\274\327\345\036=\275mn\274\374\022\347\273\356\346\355\273\377\234X\274\305\254\003\274\026,2=C\323\007<1\026\200\274\302#\026=\354\212\346\274\205\230\256\274\031+\035\275\233\300\204\274\224\220\314\273\307\311\034=O\03329\354$9=}b\234<\273\2039\275\000~\210<\200\305\377\274\262\327\327\274\344^(=\3423\222\274\t\3249=S\367K;\270\024\337<<\366\013=b\234W=\333\375\034=^L\203\274\356G\237\273\253\263e\274H\033c<\354\026\362<z\214\025<\222j\013=BlY\271\36620\275-w\033<\264\214\214<\022L\t=\203)\325\274\272sI\274y\210\333\273\317\325;\275\332v\034\274\030\'\216\274\200K\315<\264\275\352:\370j\266<\362\370\316:b`:=\205\304\256\273\231\315l\273\002\'B\275\342c\237\274\323\247\032=adK\275\224\204\301<\016,\327\272\310P\273<\265!\313;\204.\310<\252X\276\274b\317\351\274\021<\037;Z\235\'=>\212\033=\200O\232\272\\\201\027\2750%\220<R[\244<\013\"E\275\266\027}\274\026%O\275\017\251\020<\370E\351\274\020\315\033=\2426\323<\320\025\034\275|j\020\275A\323 \275b,\345\274\206\\\"=\302\326\350<\272\356\255\274\221\204\227<H\227\344<r\260:\275\330\200B\275U\352\020=\366#\030=Y7=<\230G\021\274E\241\241\273j14\274;\206\266\274\013;\257\274/\301q<\375\335\320\274\3558$=\246\r\353\274\300n\256<]\263\261\274\rM\217<[\013\034\275\037\310\336<\241\247Z\274\032@\002\2747\201t\274P\213.;\333\253\223<\326?\261<\0222\366\274X\034\304<\207\320\300<\332:\010;\037-\326<\347\300\026\275aof=\2672\334\274f\350\216\274\213\332E<\215R\026\275K_\327;\036\206F=\316\233)\275\004\321\014<\322JH=@\251\322\274y\204\021=+L\270\274_\003\027\275\014\203\336\274\367g\367<\352e\230<%o0=\376\343\237<\003\244\331<Oi\010\275h\267\024=\342]\022=Y\233\346\273\021h<\274\355\322\341<\263\215\264<\242\203\002=1@\242\2736\376\036\275\346\370A\275\200\220\n9\220\024\032\275\222w\234<\352&6\275$`\204<)\312\350\274\306Z\200<S(\205\274\"\365\371\274\330\356\004=\255\032\331\274\'\205~<w\317$\275\217\nG\274?:\n\273\220\335,=\\?4=Pg\r=\251c\035=y\261\347<Y\312L\275U\224\350<\306Y*\275s$\354\274/G\027\2757\252\331<j8\342<\346G\343\274:\2014<\373\356\026;\356\323<\275\205\375\301\274w\335\307<\3255\324\273\360\246\347\274\211\253\256<\200Q\303;\345 \274<\007\337\017=\213\232\243\273%a\374<\314\340\177<\205\242\t\275]\256\353:\375\306[\270\263%\033=\226\020\223;\004\373O=g\233\361\274\202\017v<YF!;\270\347\323\272\230\r\277<\231\266K\275O\256(\275\322\3413<9\206\314<m\327\362;\207\362\t;`\3400<#O\245\274\271L\t=g\003\371\274\032\334*\275U@\204<\\^\311<\274\002\221<\203#(\275\375p\004\275\262\271\341\272\307\017*\2746\037\322<5co\272`\r\234\274Y\341\013=J\204$<\240\276 ==[\244\274\231\306\361<\317`\025=x\340\037=\2627\226<yB\036=\312\202\311<\003\262\212<,\t\212\274R\2114\275`\255\312\273\022\245\005=d\036\312\274\234|l<Q|_<\366Q\352\274\323y\033\275oBd<\322\271\003=\247\276\266\272\366\262\221\274|\261\312\274J\222D=\014j\025=>\354H;f+\023\275E*\360\266\345\365\226\2749\027\242\274^\314\016;1\034>\275\246\366d\274\333\203\230<v\357\224<\006\003E\275\354\013!\275[1\301\273[\036\257\274U\377\"\275\'\231u\273\204;\273\271\337\020\016=\'\316&\274\007S\240\274\260j\217\274\314\310\234<x\255\023=\"\337,\274D\232\225\272\346yS\275L!\251<\361F\230<J|\004=N>u;l\025\237<\3018W\2751\312&=\300\324K<k+\352<\263_\267\274\020g\317;\002\2648\275\332\277\004\275.\017\261<]\261\342<\n\244-\2757\234\032\275\033\305\225\274iqB\275\353\014^<-\343\r=4\027\253\274=\253\243\274[\202\023;\0314\221<\254t\222;\303\010\326;3\2767\274b\350\310;\006-\314:\361\367\'\275\326\277\340<\233\033\023\274+D\320:\030\321!<\030\017\243<\371p\001\274\277\366\231\274\354\363V\275\261\242\265<\326\305\253<\\\014A=\r\253O\273\341D\007\275,N#\274dn\001=\014\037u<\210+2\275\355\315\027=,\243\350<U\270\"\275W\"\246<-=Z;\377\216\327<k\356\344\273t\212\314<\307CF\275\252\303!\275\322\246\214<\330\3357\275X\223\264<\270\007\321\274\267\225C=\256\177\321\274\265\366\260<\354\320\t\275k\3008\275\r\364V\274 \367\235\273kp\006=y\240\302<\210\263!\275\222\242\004\275\n\2066=\313\021\202\273\230\001+<\205\204\2659\023\360\"\275\003\262\026\275\217\031\023\275\201T}<\327u\341\274\312\344T<\351\242C\275\207{\247\274\034\006/\274\016\025\216\274\222\030\223<Bq\313<\316\251<=\363\2473=\326&\337<2O\375\273Q9;\275\205\276\200\2732\203>\273\256\211\324;\264\000\263<\325\266W=Y\265W=8bG\274\346\231\262<\362\307\226\274\275\276\314\274W\"\234<o^\355<X3\024=\375\212\n\274\374\020\350\272\315\351\266\274\237c\374\273\0254\273<\270\272!\274I\000s:=t\235\273\264f~\274\370\234L\274)S\007\275\031:W<A\362\217;C,\336\274L\306>\274\002?\007\274Bci<T\367\013=Zu\275\274\363Wr<\322\254\251\273\215V\334;\264G\347\274\266\215&=\360\372\"<\220\3135<\033\373\335<\254\244\014=\236\\\227\274(\"\3419Ot\374<\251\213\307\274F\361\277\2740Q\362\274\2334c<\221\227M=\020\024\273\274\037\321\315\274\227\263\273;`\234\221\272\346\356\237\273\356_I\274{p\r=/\032\023=\313\340\031={\341,\275\216\1775\275b\273\272\274\232\334\214<\331\213\004;\343D\372;\016\367\223\273\234\013\264\274\003YP<\335\325\010=\245\016)\275\365o\035\275\227T\207\273*~\006\275\240\332\350<\233FS=@\230\362<F\223,=1\266==\034\267\227;~K\033=fK\020<\246`\336<IHH\275\310:\357\274\351\311 \2751YB\274\352\303\247<)\032\270\274\2623\216<\036k\221<\304@R<\2066\036\274\204P\007=\300b\'=\200\331\235<\\\021\225<\034\303;=\355b^=\221\3077\274\\\303\003\274\220#\003\275\237\033\307\274\266AY\275\014Ow\2743p\006\274\341\363\354\273\252\353\304;6>#\275\331=\024=\244Z\367\274f^^<\024OD;%\004g<\250+\220<\237OL<1\365Q<\334\320\"\275n_Z\270\341N\344<\t9v\274\200H\310\274^i\005=Oo%\274\345\224\017<)\237\241\274\275\274?\274U\370/\274\261\232\225\274\r\254\267<c\n\036\275\216\324\026<hj$=qZ\005<a\010(=tM1=\035d==\246(\027=f\364\332\274LUJ\275\224KL\274h.e\275\353\243\026;_\304\344<XP\247\274`\326\024\274\346\321\305<\311D\021\275%\245\225\273\315\321\346<\346\322|\272\006\254\254<\376\3627\275\342O\025\275\302\247|<!\'\025\275%\265\246;\177\321B\275\005b/=4\006%=\246>M=im\026=\010o\003=\340\231S\274\024\317\366\274|F\331\274\271\317\346<\234f\010\275\260:\352\273\016y?\275\024J\221\274G\331\263\274\313\2274\275\332\265\"\274\"\346\025\2754\364\276<\025t\372\274\022\353\232;\257\371<<^vf<\000\207\004\2756C\310\2742\024\006\275u,\006=\323\222T\275\22677\275\341\264\213\274\037\323\025<\371\2621=\240\372\357<\305\367A\275\240ql<\021n\027\275%J\013\274\276\364\010\275\354^%\275\3063\025\275n\377t;\317\331\201<\263\275\233\273\217&\233<\335\036\030\275\336\003\005=1\310u\274\303a\352;N\356G<\3744\235\273\335\014)=;*\023=J\302q<\252\376\013\275\307\2118\275\231\376\035\275_\353\330\274\361.m\273:\211\357<\262\326\257:\323\301\'=E}%=n\347\r=*w\340<A4\032=\340l\260\274!\250b\275\350\'\303<8\\T\274\265r\226\273\224\201\021\275J\3631\275\317\261\317\274\037R\337<\234c\013=\370\307\021<]1\346\274\277\000E=^m\225\274\3471&=\270\344\325<F\367<\275\254x\247\270\373|*\275\235&\001\275j\201:\275o\rJ=\361V\013\275\251\257\"<j\310\351<)2\030\275\371IQ=\225\224\215\274Qg\327<i\r\272\272\r+N\274\024zC\274VD\302<\213\221\344\274\'\343L<\233V\316\274\243\t\342;\002\340g\274EO\037=\214^\357\274\377]\244<\245\276\276<\361\034\017=_z\023\274\215\254\261\274\316\361#<z\247\360\274S\016\211<)t\373<\232\207Q<S\n%\275\265\010R\274{c\272\274\306X\347\273\212-,\275\277\016\022=WG\307\274B!\211<\261\266\361\274\306F*=\004E%=A\364\215\274^s\230\274|\243\244\274\016\242$<\032i\240<\240GX=\266)\214\274C$\334\274Ks\004=\355\205[<\215\213\270\273\325\035\264\274\016\245\343\273 I\027=`\230#\275\301\233}<>9\004=\224P\274<a\211\202\274\257})\275$\327\311<;\363%\275d\234\022==\000\302<\216\024h<J\024\256<a+1= \202\222\272H\177-=a\247N\275dU\320\274\r\303\353;\245=\260;\266\331\000<P\207\003\275Y\207E\273\\@\307\274\301c\002=\365\334+\275\256[\370\274\260\027\010\275\352\237\007=\315M0\275\033\032\037=\232\366\013\275\006\343\310\274c.\026\275\3469\007=\324\236\300<y3M\275\345\037\017=\206}==l#{<\232&R\275\265\033\220\274\354\2413\2758\377\305\274\\V%<\204\035>=^E\374<\301\226\030\275\305\013\367\273\364\316\221\274w\321\013\275\n\247\361\274\000K\303<V\270\243<\003\214\014\275/\350W\275\240%\277\272\250\262\'=(@\367<%\370\005\273\000\237\002\275~9\350\273wQ\370<\206n\274<\320_\351<&\321\327<\373\214\307<\253t\034=\266=\354\273\236\263\357\273\\d\214\274\322W\032=\246W\267;\350T\377<\320\207\240<\243\324\334\274\245v\367\274\007\3029<\361V!\275\315u7\275\355\370A;\031S!=\325\2544<\377\324\355\274}\270\370:\000\235\320;N\034\t=\372\247\316\2749\345*=\2306\202<x\311\240\274\002\212\036=j\033\025={`\216<`\342\343<\023\342\010\275\017\014(=\375\271;\275A\\\032\275\352gC\275\013\017\n\275B\310\264:\353\2516\275\002z\013\274\213#K\275I\343\037=D\237\355<\251\355\372;\025I\213\273\'\331\244<[\313P<\350\247\353\274\"\005Z<UL@\274\257\303\312\274>\336(=\274\354\211<\001$@\275\311\322\301\274\367\037\327<\003\270\354<l\337M=O\3235\273\220\370\272\274\356\003\254\274\376\262\251<\004\206\007=R\2735\274\207i\013\275\033R\233\274Q\312\034=T`O<\245H\'\275h\304\367:\360\3475\275`5\211\272\2676\202\274\025n\312<\266Q=<\311\255`<\342\220\316<\246l_;OB\222\274\200\222\020=|\350\036=\023x\'<%\267\210\274\202\225\226:\204*&=\305\311U:I\335\274<\037\326M\272Rz\246<97*\2748\272\204\274j\311\034=\266\373\355<v\035\245<,\315)\275\025\300\273\272\243\377\037=a\342)\275\303\255\374\274AT\267;\254\331!=\253\307\243\273\2529\346<P\314\327<~\255\000\275\270>\337\274m\023\031\275F\361J\274\313<B<h\024\331;J\204#=\200\256\204;\032F\t=\332qE\275\217 \247;\317\204\312\274\360Y\277<\225q\367<\\\010\025=1\200\360;\257\316\210\274\215\374\325<\274\221\253\274\350m\215\274\341\001\337\274\240/Z<\223\177\265<\00037\275>\360A=\277\215V<\274\210\232\274%\256\310\274\372$\376\274\225\022\371<\340\237\005=\223\022\004\275\212\201\374\274\215\2301\275Z\2468=S=G=\032re<\360\275K<\205\210^<\010\365N\275\310\276\212<\345j7;;\222\202\274\201\'\336:1$\345\274`\351\271\272~\"\"=\246\231o\272Q\340\217<H\024\274<\007mb<>\3313=>\263\006\275\253\227C\274\351\326@<\327\203\310\27470-=&\362\324<\366\032G=0C\030=\265\315\236<#\036\233:^\002\036\274\021\302\001;\016h\227\274j\254\001\273\2151&\275\216\272F\275e\264\276<\316\"\351<\372\037\037\275\301}\006\275\334n\027=\005]\242\274m\020\221\274f\224z<D\213\014=/z\332\274>\351\312\274(\022J\275\030\344\020=0%[\272T\004$\275\006\332\267<9\226N\275\264tp\274\023\300\230\273\372B\246\2714\001\360<5\221\206\274c\202\323<\201z&\275\036l\350\274\252\247\305\274\n1\356\270\356\320\033\275\225\220e;T0p<\235KF=T\234J\2736\027\311\274\006\262\275<\247C\005\275{\356,\274b\361*\275\217\253\"<\326\331\346\274\206\262J\275\367\327r\273X\266)=\315\035\200\274(\240\272<3\207\216<;\250\261<|\272F=;\376&\275\212\245\037\275t\200\266\274pE\343<\312\240\002=X\270\017\275\014\034\214<\302:\236\274\277\027\035\274-R\034;coB=\265a\261;-3i\274\326\234\244<\335\374\304<\037\244\017=b\336\354<:\354\246\273\267\263#\2754\"\036=\223\261x\273\376^\363<|dB\275\201\357L\275P\240\256\274\312\3334;\215\371\270\274\250\313R\275\250\240\303\274Py>=K\205*<q\344\324:]\354\317\273\372\316\'=O\334=\275\243\355\031=\310\037F\275\360\327\253</8?\274\005\222\273<-\344+\275\376Cm<\304\200\003\274\344\3106<\257^\220<\375\277\001=\2161\341;\314\211\214\274\203h(=\005\350\302\274\305\030\370\274\326Q\314\274L\234J\274>1\222\274\240\200\010\274\377\300\007<\030\002m;\007]!=\274\313\227<\271P\250\274H\276M\273\203\262\365\274\025\3049=\310)\025\274\247\343\242:\333mB\274\315\357\266\274\221\321\202<\342\\H\275\341\0014\275D\306\355< \345y<\2721\245\272\001`\371\274\332f\247\274\200m\t=\032\267M\274K\227\366\274\177A;<\307\372u;\265k\006=\237]\337\274\307\366\344\274\001(\350<\003\275\223\274R\224\232<\031v\370<94\266\274\220\201,\275\203\211\277<Tz*\274\272\221\323<\207\013o;C\264\032=\337\001\330\274\033Zh;\212\247O\274\201\220$\275\006\246\032\275l\236P<\363\203\327<\240\335\006=|\217W\275\177\323\304\274h;\225;\014\010\002\275\352ZS=\246\035\"\2737\204\307\274\000\350\n\275\233HH\275\206\222e\274|j\026\275\362H\037\275-\221\223\274P\016\360\274\332/\354\274sD\365<\260\316\256<`(\013<\306[L<\362\324\267<[\177\021=\2271\314<+\276$\275\353_)\275L\326\207\274/\226\237\272\250z\006\275\251l?\275\255L\211<x\351\364\273\264\034\353\274b\023\021\275 \277b\273_\354\021<\220D+=\371\236\343\274\031\207\254<\\\202\234;\341_\033\274B\346\023=\350\276\033\274\272\'\373<\256\237h<6\221C\275\360\275\321<\352-\036\275\027)Y\275\351\206\320\274\0248\305\274\nV\024=\320]6=U\2715\275\225\222m\271\335A;<O\t\026\274\224\216\366<v\314\231\274\362\350\036=\340m\221\273\3045 =\326\373\n=\374uJ\275S\343X;\202\\4\275\033\347)=\212\330D=\235\246&\275yz\013=\030\003\r\274\234*\232\272\2531[\275\214\254\021\275\236<\"=\000\320\032\271l\245s\273|\246\"<\r\016<=\372\3777\275y\030\235<`\r\345<\036\032\005\275\014\361\303\274\"\006\323\274\246?\264<\367\245\237\274V\036-\274n\377\215<\324\317\241;\335\335#\273R\226\010<\2645\234\266O\221\014\275\005\177\001=\002\315\316\274\264\316\270\274\303\300#=\t\265\274\274\274i}<md\3709\351k1\274\343Uq<\tQ\357<d\313\346\274X\243\271\274\201:\225<\207\006\033\275\026j\243<\026\260\220<\2603\314\274\345\306\223<\007A\356;\302o\005<z)\316\273[\233S\275x\224\'\274\366\255+<\205\345\234<\213k\210<m\304Q\274\220*:\274b\302\227\274\206\016\017\275\260\000w;L)G\275\241\231*\275\233\356\222\273_\2374\275$\026B\274\177\257\201;\360\302\220<\3716\330\273\346\355\'=\211\354 =F\260\032\275\004\241\024\2743\024\027\275=s3\275\220\307\272<\001\'\220<Q\314 =\242\216\326\2741j\247\274\214\305\007\275\260\305\2059\312\022\323\274I\036\010\275s\376\264<Evr\274\213\220a\273\014\3159=\334\203U=\355\363\271<\240j\021<Q)\036\275|\357\336\273$\001\264\274\345t\033<]u+<ij\213<\271+*=,\032$=\010\236m\273\310\362\321<\304\326 =<\001\n=\254IJ=%s\002=\215\234\320\274p\2233<Z\367v\274\321n_\275H\207\'\275\300\232\005\275\204\000\375<\037\377\231\274VU\274:\212\323\360<R>\354\274\000\235\033\272\204\344\212<\036t$\275\010\354\032<Zx\023\273\023\352\227\274\324P\232<\013\203\034=}J>;\240\323\020=M\210\006\275%\0170\275\221\367O\274~\256)=\365\007\221\273\021\247\003=\033\272&\275\273I\360<\336\377\201<fK\315<\203!e\2734\034\036\275\366\200\230<\244O\013=\374=N=.\362y\274\324\3371;)>\261<\224VZ\274\226\236\250<\237\204\270\274\235Q\315\274+\003{\274\276\373\356\274\3706\345<\336\034\016\274d\023\213<\3028M\274\243\322H=\243\372\331<\253\177\205;\316\r\250<$2\r\275\260w\314\274\325_\021\275\360V\256\274\266\"\022=\tI\360<\307\336(\273U\006\311<\327\2313\275\206\016\023=\007z1\274\236\030\017=A\300\023\275\211\267\340\274\272\246\237\271H]\274<fa\367<CEz\274\316\2250=\345FN:\2129\200\274\360\306\226<Y\326\250\274\"\220U\274SS\237;\017\220-\275\032\214\321\274\003\366\245\273\203\226\334\274\032\310\366\274\034\366?\275\240\310\362;\266mz\274\267|t;Q\036<\275,\343H<\256Z,\275\350\333C\275 \021s<\203\352Z<ZVR<\322\256\350\274\234\371\336<J\322\034=et\"\275^\216\334<\226\322\030\275[Y\270\274\263\213\017=\304\270\021\274\"\225\013;\247\260b<\030Y\021=\rO;\275\234!A\275\266\357\\\274\213\251\032\275\354*\371<\'\000I=d\231\021\275p\330\376\272\214\263\247\274\254\266\023\275\017$\373:\264~/<\010(\343;<\317\324\274u\220\303\274\270_\251;X\310\334\273\374r\033<\236?\025\273\377\360\321\274\230%,\274\000\274\010<M\220\017=#\265i\273\002\321\206\274\t=\366<\030GW9\010l\001\275\334a\017\275\322\243!\275\2273\264<l\355\22190=\272<\"\224!=\016\273\317<\0210O\275\274\253\257\273\350\370\003=\226\2224=\364c\310;\200\003I=\240\003\026=k[\223<\212\030X\275\2350\242\274\273?\023=?<\214\274\351\0061\275I{[<1g\250\274\nT\n=3\244\312;\243(&;p\232O\275\r\206\256\274(\212\223<lhh\274!\0163\275\027\220%\275\333\265\010=N\374\375:\264\005\026\275M\3052=\3633d:7\"\r=o\256D\274\227\036d<\001\'\017\275\312F:\273\215##\275\311\303\027<\270\342]=\310\263X\275\3345\365\2742+\217<q\2708<~\225\014\275)\022\317\274\334o\270<\370\260\352\2749\221%=\t\030\337<\215\207.\275\352\370\\\275\014\330\013=\3700U=\362\223\030=\362\276\230<\017uz<\367q\303\273\033\233&\275\025\024\354\2736\272\036\275\005\3276=\242\373\273\273\261x\014\275m=\023\274\r3\032=5O\315<\217\307K\275\0352\'\275a\262\031=\314\343)\274|tE\275\273\363C<\207k\244\274\214}\344\274\311\367\016\275\025\367!=I\3713\275\350\310\277\2730H\224;\210(\242\274\265\235%=\310\301\035=\337\006\023=~\256\016=M\023\030\275-p\025\273E\226*\273J\370\025\275y$&=0\234\313\274\250\327$\275t5V\274\330\3502\274\314\241\027=\322\226\360\274%\303C\275=\304\024=\276\256\253\272#?\257\274T\r\320\274\377p\320\274\221\r\322;C\220K=\366I)\274\022S\232<d&\261<\207\206\n=?\271\316\274Uwr\274\262aK:\340a\262<+\272\326\274\373\265f=hC\361<Tp\220\274\355\213\341<#\372\327\273\002\252R\275o~\212<R\323\226\274=\210;\275\205\330\017<h\337\260\273\2347\256\274\327i\216\274\363\010@<\014h\001=\314\253\002\275#\340\027\275\323\232\020\275Wh\036\274.w\372<\004^\276;\2600g\273\303k\372<x+\023\274\251\026\246\274\342\"\004=\205\347\306\273\2262P\274iw\005<>}@=ZF1\275\313b\303<\027\203\225<\251\2266=\365\357\210\273\340\222J\274\274oT\275\347\313\336\274\223\205\373<\023\3255\275\223\317\225;\3511\034\275O\216T=\345\246W:c\215\204;s\355\366\272}N^<\t\246U;\230\206\271<\263l\327<X\206r\274_\0266<\240u#<VN\374<>Q\324\273A\303\017\275:\237\'=\245\367V:\221\331[\275F\004T\275\375\n\3239p\306\250<\321\007\036=\006\215_=\016K*\274T\260\272\273\372\316`\275\202v \275\3400q<.\004\266:Y]\235;\350n\332<]^%=\034>\342\274\350\232\225<\021\3102\274\261\317\373;G\322\022=V\016\236\274\001A\022\274\221\323\013<B\344\345\274R\014\331\274\227\2076\275L\330\002=\177\213\370\274\250\203t;\352\262\'\274\244\245\004\275\010\357I\274\337\325\024=\256{\345\274\312\331\002=t*\323<\374c@\275\333\235\264\273\337\010\237<\300\217\335\272\376\n\036<\241q\303<\210\357\272;\017\276\263<4\025G\274-\330\217\274\304\222\273\274bP\010=\003\253&\273D<4=*\341\224\272\365\304N<u\300\013=\261\334r\274\356\222\006=\234\006\314<J\212\307\2741G\014\275\306r\210:\034\333\375<\232\370\003\275\266\251\235:\267\250\340;\370i\311\274\ri\n=j\315\025\275\2571;=R\001[\275K\010-\275\237\rT\2754*\271<\020a\n\2750Q+\275C\231\321\274K\'4<q\202\337\274\010\177&=pp\017;~$\261\274\274n\227<\264\243\035=\020:\001\275\305\320!\275\330\255\363;\266\034\354\274\3312\367\274p=r\274\202\351\004\275\366f\372\274&\375R\273\325f\034=\014\3523=\354#@<\310\207(\275>\3739;\257\210\245<X\237\335\267\2065\221<V\331\023\275\324\221\214<\247\222-=up\272\274\r\"V\275\252\310\357\274cka<B\336\377\274\'\235\307\273%\235\031\275P\272\005\273\274\370\277<\225\343:\275m\253\356\273\275eh\274;\210E\274:\300H\275\365\274\030\275Ky\221;\027\243\"=!\243]<\036\263\036\274\270\257%\275\023\300\036\274\364\270\375\274\027`\022\274\221\333e=\342,\370\274\031G\252\271H \010< w\006=f\3477\275t\034\255\274@\177\236\2743L\365\273F\242\207\274\251\344\265\272\007\332\036==9\007\272V\327\027=(\330\262<\001T#\274\272}\333\274\214@\256<t\240\326<\362\360\215:\3503\372\274\232\374&\275\353\034%=\221^\311;R\264\000<\312~\253<\234\277O\274\275\341\230;\215\256D<Dr\034=ZX<\274O[\023=\003\252_\275\371\243\2519\346`\321\274I\305\024\273O\277\235\274\341\025\212:$\230\345\274d\002]<\233\374\211\273\261\343\250\274\243\371\347<\266\340\331\274L\377T\274H99\275\246\251\022\275>\211W<@F*\275A\263>\275Z\206\216<\203\240b<]\377\363<\"n/=\220wO\275\033\315\035=\320h\344<z|\001=\037\2056<W\254Y<\005\303l\274\224\033\310\274\t\231\304\274\223\001E\275\036\340\372\274\213\302\035\275\372\255\266<%}\2229\331Z\000\2743m+=\307\027\370\274\337B\246\274\244\013\026<8\035\231<\341-\254<\243-\333<\"\266?\275\314\321\214<\267\306\227\272\343\220H\275a$\016\2743\211\203\274v\265\007\275v\270\002=*n\023\275\363\315*\275e\242A\275+[}\274[\323=;\205\032\037<L\311*\274\200\010F\2750\2125\275\017\251\243<\364\262\026\275\246.\007\275\301\n\352:eJ\254;h\245\367<T\032E\275\261\316\025<\340\336\013=\231@W\274,@(\275F\'\305;(\031 <\\\371\235;\2036\255\274\316k\331<\271\362\300:C}\211<\303 \000=\3677\225<P\240\010;\027\251\276<\274R\r=\017a\007=\205\214\242<Qw\001=\376\236\234<\313\222\367\273\327\2520\274\314\\\t=\253\364\241\274\256\347\r\275\"\'{<b\345\017=\025H\\\275>\316\312<b\204\001\275\n\2141=\216\r\030<i*\257<$\270^\275\202L\036\275m\016\037\275\327\217\216<\024\316L=\324_)=\211\366\254<\256\233\246;\257\302\001=\022.,\273\320`m\274\364/\014=+\354\033=\234;\014\275\206\202V7\273\364\001\275\232\010E\275R\350#\275d\317\260;\265\336D\273\212\002,\275V[\267;\207\322\034\275\307\022n\273n\205\354\274\206C\032=\315h\030=6\001$\275O\263\r\274\306A;\275\265\304\003=\211(\205;{i\332\271\201\313\270<W\347\036\275\227\336u\274\255\340Y\275Vd?\275\251u#\273\205\221G=\313\023\246<,\341\264<\010\004\037=C\004\230<\034z\226\274\223]\035\275S</\275\250\234\227\274\310h\005\275\234\264i<\036\330\245<WF\001=\221\267G\275\023N6\275\355\230=<\000\013a<\216b\221\274\224\3076=)\337\017\275\022uS<\365\213\272\274\007a\230<\363>\347\272\202\360\003\274\\\010\t=_\371D\274R\302\370<\264\200)\274\227}\315<6\261Q=\004M\202<E*Q\274K\037w\274\220(\002=\334\200\037=f\347\033\275Q\237\013\275\256\001E<\324\302\220<N\340\275\274\215\215\345<\367Z-\275O\315\271<\036\371\030=$\337\004\275\030:\035= \3347\275\373o\"\275X\314\347\274z\210\217\274\000\n\301\271!\031\023\274\032\305\227\274\240\362\032;h\224w<\354\243\277<\013\032-\275\363P\014\275\244S~\274 -\005\273\243\361\266\274\222\207\037=\2463\235\274T+m;\014\232\317\273\353[\300\274\203\234@\275T@@\274@\221\304;\360\300\221<\314\\\n\275\306\263q=_\332\017=a\200\017=#\002\014\275?\217\350;\222Z\270<F\020\320;\336\037/:\214\300\200<\365\332\272\274\030\271\216\274\030\371\275\273\024\257-=\310\276l\273\303h+\274\034v\025=\034}\035\275Q\204\021=\221A]\274q\001\r=\013\262^<\200\306\r<\323M\260<\250\372(\275T\016\231\274\'\276\332<\031\377_=f\007|<\310\345r\275\025\007\335<\341\035\n=\234K\272<k\350\231\274\322\274\004=\371\t)\275\306\364V;\200\207k\274\360\220\242\274\266I\"\271GY\251<\226\007G\275O\366\372\274J\004\022<\026B\242\274\321\372=\274U4\265\272\334vS\275\204\255?\274D\345\010=\215\235\252;)\210\325\274\240\361\363\273\245g\014=W_\265<\"\253?\275\027\345\212\273{\303\256<\347b\237\274\350Q\232<\006x\276<\303>O\275^,\201\275\350?\305<\t\320\023==\267\017=T\370\022<e*\377<\335c\240;^\374\352\274\026\213i<h~_\2752w\363\274\214\311\326<\005\335\330\274\036\231\240\271\205:\262<T\257\003=\350\276\025<JV\237<\372\216v\274l\261\013=8Z\262<>[I=f\245\032\274x\"\301\273\205%\215<\nvU=S\244$=p\226\326;\037zq\274F\246*=\242\323\027\275mi\001=\245\020\331:\214c.\274\3626\\=\242\340\025\275}\315\n\275\312Z\274\274\216\353\202\273E5,\275@K\265\274{9/\275\341\224\336\274\362<M\274\300G\251\2744%\020=\3709.=\001\210\017\274\216\034\240<4\014?=ay\241\274`<\032<.\026<\275S6\263;\266#\361\274m\257\274;\177&\235<\334\230\362\274\246\010\317;\272vz<\300\325\024\275\227\227\001=]\201\303<6|\013=\276\252\030\275N \357\274iP%\275\307~\027<pG%=Z\377U<&\375\n=\370\300D\275/\345\027=\037\333}\274\243,Q\274\000=\273<\222{\330\274/\277\364\274\036N\361<\362\014\352<\262\232\351<\223f\212<\316\277*\275\312\357!<B\213s\2752i\321<\203\202\263\274\277\201\357\274/S\336<\361\020\025\275\231r&=|:\r\275Vp\000\275\3260F:1\355n=[A\342\273\366\314\312<\205(\200\274-MV\273P\0018\275\215\364\212\274\202\324\n=\224X\253\274WU(\275\207\351\362<\362\013\035\275\2637\365;\371\211\014\275\342I5\275:\267\311\274\356\'Q\274L\347w<\274\022\037\274\263<\211<\342\200\325\274\361\032\346\274\266\320\373;~\346\273<X\023\301\273o\001\266\274B\346d\273\217\213\340\273\372\263F\274\215\304P=j=\247\274|\334\n=Uv\";\365t!=s)\236\274\2626\004\2757\033\031=\212\304,<p\247\271<\315\010\006\275A\333@<\010\272\017=\000\262\213\274z\202\234:s\226#\2750\017=\275F\003\235<\266\221m=\377\264\253<32W\274Ze\305\274\241\363\r=&B\233<j\024\324<\374+#=\207>\231\273\314\255,<H\277\347<|\353\243<&zv\274\224\310R\275\2066y\271|\336\213\274e\277\334<89.=\010M\337<\001\373\271\274\036\221h\274\214w\020\274\254G\257\274P\367\261;H\336Z\275\350\037\273;W\374I;n3\374\274\232\270\206\274\330G\225<\023\250\327<\2169\304<V\372\n\275`\276\267: X7\275\313X{<\341U\230<\207\335m\273\037\330#\274\257\272\201;\321h\362;{\310\372\274\353\2430\273e{\211\274\366$\000\275P\262I<\377\254\275\274\307\306:\275\304\246@<\262\001\247\274\243\027B\275\004\235G\274\270I\252<\230\2671:&i\206=\272\3768<\277\317\315\273Ks)=~O\304\273\n`+=x8\326<\212y\324\274\340:v<\326\'I\275\246\232\002=\005Lp<]\276\225;\365/\014\275\214\227\266\274\016\250\231\272\013\264W\275\251\210\211\274\027\337\357<\272\235\365;r3%:\343\023\346\274\331\315C\2751\244\351\274\272`\004\275\017\374\025\2759z\202;\271[\236\274,\335e\274\235=I<\371\006<\275\377\276\010\275\\\274\245<~!\352<\256\033\246<\322\0372=\224<\2719\266\203z<K\033\035\275\027\026\330<r\017\323;\371\206\212<):\320<9\250\025=\217\355\223<\376zI\275\344\237\013=R\335h\274\265d\240\274\365\341\032=\266 5\275|\345\347<m\352\253<P\315/\275N\202\021\275\362t\332\274\234\343\032=#\234M\275\352\001-\275\217{\027\275lZ\r\275\274\2738\275V\355\020=K~\372</J!\275d)\205<\240\037\304\273u!\325;3\277\032=\370\270=\275\'\302\366\272\0275?<w\014\315\274\013\257\263<\036=Z\274\3347:\275\246\246\305<\301\341I=\036\231\341\273W\225\037\275<\225C=W_\200\274\353=z=g\003X\275\000>39\251\010\026\274mYZ=\370\234G\275Ru\006\275\035M\250<\352\310\216\274W\321.\275iH+\275 \274\307<\226@a<,\346\355;H\030\213\273\337\306T\275$\3423\275\014\263\240<\367V\020\275\223\272\253<B$-=+AJ\275y\237-=\306\030\226;g\266\030\275\0309 =\331\311 \275>?B\275\014\310\273<r\213\031<q\001\201<\010\007f\274(\353\363\274\320s3=H\252\017=\246W:\274\363\353\256;\376\210\220\273OTs\274\331\211 \275I8\363\274\250\001>\275\232\242\344<X\364\316\274\024\177R;\004h\017\274\372\356\202\274\216\035\036\275:\037`\272b\377\004\2754+\004=6\207C\275\331\324.\275\241\361\237;\022d\270\274]o\333;\206\177\314\274\252d#\275\306\030\324<\222\030\247<\337\353B<{\356\037\275\376\276\376\274\004\177v\274\352\253\003\275\337\225\023=G\240\022\274\352\270\370\274\035\364j\273\007\325+=\327\033\223\274>~I\272\332k\016\275\324\374\234\274\315%\006\2751\203\000\275?&2=C\021F\275\0353\024\275\250\036\300<\365H(\275\2769\220\274\331\033\253<\264[\314<\023\344\346\273\017I\022=v\375\302\274\032E\330\274!Z\276\273\242l\021=\035\311\351<\357\305O;\256\341\250<n\350\021\275\001\2036\275X<v\273Z\315P\275\340\246\224<\177\237\321\274\255\265\361<mU\023<\356\010\303<V\333x=\301L\036=\320\211u;0\333!=M\227\265\274\322B\037\274\004\207\2769\250\002\312\274+\256\004\275*(9\275Q\343\221\274\275\237\024=\253V?\275?\203Q\275Q\237\373<\274\264\010\275R0S<\311\205\375\273\016;\001\274G?(\275\235h\017=\361\013\003\275\342!\253\2741K\370\274p3\224\274f\026P=\225zP=W\n\361\274\344\'!\274\266qp\274tpI;\247\241}\270=X\220\274^l\227<kd&<A\021\323\273G\305\205<\205* ;oFY\275\242I5=\302\223.\275\220<,\274\344\243N\275\375\322\206\274\311\3473\275\361\250\002=H|5=\n\261\272\272\205\351\246\274\316\372\037=L\252|;Pw\021<\337#\321<\001\3302\275\327_]=<T\303\273\226\245\004<]\2179\273K\346z\274\370\021\230\273\2241\360<\273\317\010<1\233\234<;\257`=A\024\\\275\362\357G\275\261\357J<Y\261\301;\205\360U\275@\347_\274%)\000\275v^\207;5\263\222<k\372\235<\320Q\314\273bs\365\274.\256\355\273\337\3165<\261\266\021<\216\265\243\274\364\332\252\274\362\272\305<\"\233\251<\3660\210\274\004\306\355<G\221\327<\320B\306\273\000\313j\274\361\323\356<\345\267\363<^\037\261<\nTS\272\305\272D=\255j\024;\3553\007<\341\314\236\274\364vt\2746q\221\274\324w\321<\270\334\360\274\212j\332<\234\236c;e\035\357\274\352k&;\232\2539\275\377^\330\274\234\305\276\274\301\372*=\331L;<x\322?=h\006\036\275Ih\330\274e\030\335\273\330\027\036\275-\322\217<\360\024\034=\343`\305\274/\252\330<|\036H\274\332\tE\2742d\327<\022vM\272\207{\331\274\372X\n=A\236\223\273O5@<\242l\335:N\340\017=\317e\247<?\264\026=\034\022\277<\242\036\n=:\004\007\275\234\263\342;2\363\025\275\001D4\275w\035\003<\324\216Z<W&\'\275b\036\242\274\324\375\220<\275\300u<d\036.<\243^O<\326}\266;\355H\n\2750}^:\264\223\200\274b\337U<\025\321\346\274\307t\026\275\034\371<\274^\327\3459\331\346_=cS\002=\337\367\247\272,\313\026\275\3555\252\272\255\233\252<\313\r\n\274\\$\021\275\322\r?<\267\321F\275\212\256\021\274\305\260,\275\304;\245<\370\243\357<\334\321!\275\2642\274<\371{C\275IF+<\305q3\274\177Z\026\2754\010M\274\t\267\030\275\003k\317<\2207\017=\343\'\230\274%\236\311\273\304\2376=\273\247/\275?\375\005=\236\222\266\274=}\314\274NM\342<\231\243\255\274\007\3147<\340\3663\274\223R\004<\005\307z<\t&\014=\024\203\231\273\370p\n=\353\331\027=\204{z\271x\344\005\275\205zy\274\030\310\274\273\2241\352<Y\230\265\274X\365\270<\271\306\006\275.\210\007\274\253\203\204<\013\375\020=z\277\341\2744\235\331;8%\002\273@\013\356\273\354\225\005=\323\027\035\273\\\214\366\273\023p\345<\205\327|\274\026\346\215\273\014o4\275\031X\035\275U\301\004<\202s\310\274gl&<a\r\242\274\277\034\021\275\210\262F<\205\2728=\030r\000\275\322}\213\274C\2036=\313 \026<\221J\021\275\2613\257\273\265\245\205<\210sg\274ll\217\274]\024\021=\357\330h\273\021-\303<\t,9\274|\005\016\274#\237\245<<\2433\275\2428\222\274\014\320\247\274\352e-\275\032U\215\274\220\244J\275\210\303\340\274&}\033\275.\376\321\274\342\252h\274\270\254.=\266\253\325\273\320\016\230<\247\222\251\274\325_\273\274\266\271<=r\333\341<\366\'\033=\2542\000=`\370\027=\"\270\342\274\344\213\'=\234M\026=^\320\006\275\006\372\316\274\024\006\340\274\326\224\234\274\216\265\036=\036\376\037\275O_\003=\233\243v<U\036\267\274\221m\033=dT\035\275{J\367;\022E7\275\300$\335\274q\205\001\275.t\255\271\355y{\274p\371\006\275m~W\274\256I*\274\246\315\003=\266\374\370;[\037\367\274\310\363\305\274\267\3102\275\330\352\\\274a\262\345;\361\332\227<<\342\336;\314t\321\274\020\007\373<\213\030^\2753Q\340\274\304/6\273\374\302#\274\300\375\t=\354\330\003;\272\014\305;^|\370<=c\024\275\226!\224\274\022\362p<&1\222;2\033\231;\002%\006\275\360\377V;X/\271<\327\n\207\274\003p\014\275\271\227X\275\275\255U\275\317\345\217\274\275\r\245\274\200\312.\274\013\233\345\274\353Q\301<\234\002\346<\337\302\035=\352\357\216<\327T/<1\t\361\274\275\326{\274\242\301W\275\244y7=op\004\275\226Z1;\224\262\301\274\\\001*\275\263\273m\271\312\243\037=\2615\034\274\271\016\367\274\256%\246\274\002\214\365\274\000\266\323\273%\364\020=\361\273\033=n\214$<\243\032\236<\370>\007;\245,\022=\266pH\275\2135\034=\240\035T\275\251\024\245<\262y\312\274\377\246G\274O\327-\274\344\355\244;@\017(<\213\336\216;\207;\214;\353\355/\275\320y\t\274/\227\265;\rj\377\274\220\016\212<\374\376\257\274\315\n\014;\366\317\'\275\303\336\277<\355\017\020=\341\300j<\201\374\032\274\262\314\203;\315\277Y\274\2748\032<.\r-\275\350\250>\274}C\353\2743\231\277\274\303K\016\274 \373\230\274\2238\"=\362\215\003\273z\256\271;~G\t=\255z\320\274\001\343&:\337\025\320\272y\n\004=\207e\312<\243#\013=S((\2758\303\251<\274m\"\275\206\250\251;M\315G\275\320O\217;\275\354\010=\277\010\204\273\340\2341<\310\273#\275IB\225<\240\302\272\271d\034G\275\201(\036=\273W\346\274QN\234\271\256\020V<n\r\014\275\006\016\245\274\010\343\\=<0\325<\036W\350\274\221D\227<\0074\016\275\232:\254<\257\264\272\274\315<\023=\366\354,\275\2274\326<\322\006\230\273\202\331\005\275\245\2145=Q\007\312<\303\003X\274\321\213\226\273[\030\316<\006-\222\270\242M\025\274\324$\351<\237\035\353\274I\2774\274\250L(\275\313\326\003=\2263\365\274\0010\021=ph<<|\202\010\275\337\273\307\274\211\372\022=\331\253%=\330\221X\274\271\212\310<.L\341<\311\376.\275N\267\205<l\010\302<\306\250\035=!!\023<|A\254\274\342\003\221\274\tv\220\274\362\205\213\271z\236\222\273\tv\250<\206@[:\222\377\202\274\303~S\274\321\246[\275\332\003\023=0 U=\211\230\225\274\225\342\342<\323\234\274;\262\230\200<\254\232\300\274Jf\024\274w\\\014=A\346\364<\226$\377\274\240%5<\365\300\241</\244\353<\035\267\023\273\004\351\024\275\245\255\307\274\240\220U<\'\265\226<Dd!={\214\217< 0p\271OT\023\275\205G\037\275SU8=\316\211\347<\327X\367\273\2112L\275\247n\243\274\256\333\267\274\203UJ=F\372\314;,\270X;\356\237\262<1\265]\274j~\356<\224\002\325;\'\364\370<z\202\305\273\2605\0248\250\255\325\274\377\013O<\2032*<\367\213\375<eZ\036\275\220I\004\275\370\367\225\275IS\267\274W\247\204\274\006J\023\275\271{\r\275\r\244x<c\304h=4:i\272p\031\327;f\004r<u\206\n=\325\372\356<\245\016\257\274\244v\303\273\343\237\213\274tm\t\275\024[\265\274\357V\313\273\300R\017\273\016,\257:\263\333\037<\000A\027\275\260\336\216<\203^\246<g\346$;[\335\031=\000\001h<\346\226\030\275Y\376H=eY\241\273\277\322G\275H\241\013<\340SK\275l\031A=\023\334\306\274\324\026\235<\0208\031=\300n\246<\031u\007\274\347\217\001\275\034\265\364;|\353%=\275\356\003;\256\262Z<k\016\235<\036#\222<\023\"f\274\025\2362\275\332\275\216<\304nn\274h\010r\274\372\323C\274^\331#=B\3522\275\t\251\241\274\217\010\327\273\013\355D\274\261\361\020=\307\207&\273L\322>\274D\232\250<\365\350\026<\216v\352\273z\030\264\273\000\020\036\275\265@\323;\206\203A\274\232\340\320:\231wL\275\266\222\333\273dSU\275\"\251J\273V\271\"=1\267\235\273\233\313\367\273\371N\356\274\217#\023\275\266\3616\275zuS\275\322\215\311\274\202\252=\275E\021\010\274\244K\036\274\214@\006\275\366\227\234<\336\343\t\275\231n\307<}\302\342\274V\035\030\275\275\246\017=\006\240\310\274\177S\030<f}#\274\306\360\007=\331u\242<km\034=\212\n><\035\310\025\274eC\332\274\033\214\226\274`M\224\273\360\234\r\274&\030\241\273\206m\002\275\343\302*\275\313\2615\274\340\300K=\211[O\275\"\261\304<\236=\230\274\245\2356\2758\357\373\274T\034_<\242n\004<\246\227#\274\343\202\036<\323\363\355\274\324\325\020<H\272\247<\364\254\271<\267\023G\275v\225\r=\204\331d\274g\376\310\274\267\351\333<g\306a\274Ei\277<\234\001H\275\225\344\302;\265\325L\274\251\256\032<\273-B<\247k\017\275l;\324<\r\270\263\2742\030\274\274&x\036\275\0220\357;\023\375\233:?\327\000=\227\213\314\274\357SR<\323\327&\275\273>.\2757_O\275Yz\301\273\315\244\317<\370\2400\275i\0378=i\023\020=0\n\313<N\177\034<\203\010\220<hh\277\274[\221\032=*\373\033\274\264\177\345<\255\305/\274[|\024=\345t\277<\265\257\367\272\263O\026<\022\2021\275\2679\321\274\217\210K\274\30242\2753~\321:\203J\200\273\362R\302<\354\035(=S#\314\2749U\000\275\013\344\331<\221\222-=0\177\021=\215u\315\274<@`\273`+\365:c\023\336:\035\263\027=X>\252\274D\226\270\274\277\323n\274\260\005\215\274\374\262\246<\213\377\027=\346\034D<\346\312<=\2500I\275,\352F\275.\245\225<\375\207\222<\260q[;\210\245\234<x\017\000\2749\325\270:\341\246^;\004\317%\274\261z\270<,\273\210;\035\221\n\275\260\231 \2755\354\003<\271\240w\274d\347\315\271qh0\275\257\212\025=\231Pm\272\217L6\274V\233\244\274R\260\013=\343\316\273<\352{{\274F\343K\275(\226\241:\252\216$\275m\246\313<\373\212\016\2754wi\274\250\004\220;\373\235\214<\223v<\275\027\224d:i\347n\273k\312\346\274vz\342<\255\316y\274\352\330\327\274\t\366U<IY3\275\021\017\357<\000\0365\274.p\216:\220\345\212\273\302\024\227\273T*\327<\214vg=/\023g;\222\366\331\274\304o\3117\373G\364\274\217\240\254\273w{\021=\345\355\233<\334\006\202\274\250\200\303\274\231\366\376<\n\333n<\226\252\245\274<\006\325<\237t\255<\215\241\\<\2611\257<\235E\370\274\236q$\275\233\3076\275\205\332_\2755*\223\274\024\313\344<Jo\347\274\202\324\226<57\334<2\345\214<\375WS\275XH}<\261\205\003\275\250\217J;\240\253\222\274\3648\273<\332\335$</\240\"\275\310\243\337\274\264u\210\274\342lB<\271\201\306\273Nt0\275U\205\017=\030\267Q<N\2662\275\247g\274<\322V\r\275!ro<&\304(\2750^7;A\370j=es\315<\315\033\253\274\257\024\203<\266G\306;\230\0144<>\266\'\275\020\031\323\273\365\014!=T\211\034<\025H1=^\205\236<eLi;L\001B=/~\355\274\354X\250\274\345j\343\274\233\002Q=@=?<i\313D\275\347\244\267\274#\205\234<\001H\016\274Z\200\t<]\326\246<\330\032)\275s\363Z\275\3525\272\274]\200\\=\377\331\257<\345:Z\275$\022\020\275\226r\234\274\343R/\275>\347\370\274\205\332\342\274.$\024=\257\332\323<\032\322\361<\327\233\007<\227\223\371\2743h\360<\307%\014=n\361\034;,\342[\274\356\205\024\272~\340\370<\024\004\016:\010\252\274\273\265\221\033=D\225?\275\t\222\022=\222hE\275\027\251\212\274\240\2675;\017\035P=\027B3\275Y2\220<\305\335\273\274vHS\275\240\234\320<%`\001=3\255p<\354\324.=\t\357j<\337\201\363\274#\332\225\274\221\361d=\337\230\254\274~I\217;\327G\014\275\300&\211<\016\235/\274&\323G<i\251\216<\373\026\301\274\344\001\270\274\027\270\262<\232\252?<%)C<\2758!=\273\260\325<\215\316>\274\205\342\310<\340\200\236\273m\215j<\226\226\346\274I\216\316<\275\351\024\275\206\021\371<\374\207V\275\245\r\301;\220h2\275\004\227\326;\276L2=~\n\207;U\246\207\274\345Eb<\3202$=z|\371\274v\345\027;\315\034\013\274\231\245\233\273V\345P:.\026C\275\3126\361\274\330c:\274\247\216\353<D\241\013<\307p\030=E\'\261<\213\027\231<I\372\337\27484\n<\256\016\215<l\265\222<\202\266\341\274\272\354\333\274\357\347\326<\272\313\352<\005\0021<[<!=\340\367\017\273r:\026=m#\032=)\341\333<g\004\364<\376\313\306\274D\"A\274\246\212\003\275\367_\213:n\371\026=S\032\035=\256\242\033=\331\377\277\273YG\360\272\361\300f<\242\325\273<\245Y\250\274\355\2002\274\311\353+\275\210Q\376<\010{\274\274tY\377\274\007\230\350<,\r!\274\324\233Q\275\261l\251\274\245g\017\274\260\271\326\274A#\357\274n\001\360<\007\036\017=\3736=\275jH\203;I\n\310\274\177\037\020=\330\023\003<\034\025\201\274T\300\324\274\233\346\372;yM\001=\224\374q\274,\374\255\274U\362\271\274\314\033/<A6\262;\346P \275*\3661\274\257\355$=Dk\200\2740\357C\275\324\200\372\274kL+<\216W\374:\321ZU<\375d\021\274\242\302\037=\032\352H<t\\\'\275\007L\313\274\233\337\"\2751\256-\275\030|)=\327\366\024=n\326K\275,\017!\275\325\301\222<\371h\233;vj\350\273a\300\'\275\236\336d:\0277z<|j\026\274\301\252\240\274@\216\020=~\001\220\273N\351\352\273\270M\006=\272\363\003\275?[I\275\206\231(=\333=\000<ob\n93\322==\217\2175=\231~b\274\356\312\334\274N\230\245\273\022,\031=\264?\020<\270:\317;\214\010\322<\203\261#=\235_\265\273\030\241(\275\216\200%\275\326\323\266<\321\3204\275d6\247\274\340\334N\274\245\250\336\274\274&\330\274W\320\201\274Z\243\203;9\030Z\275\210\211\031=\374\032\002<Z\271\021\275`qX<-{*\275\020?\233<q\334K\275g\315\000=?\331\252\274x\226>\2750\214\001\275p)9\275\335H(\275FJ\'=\203\206\027\275,